{
  "version": "1.0",
  "truncation": null,
  "padding": null,
  "added_tokens": [
    {
      "id": 0,
      "content": "[PAD]",
      "single_word": false,
      "lstrip": false,
      "rstrip": false,
      "normalized": false,
      "special": true
    },
    {
      "id": 1,
      "content": "[UNK]",
      "single_word": false,
      "lstrip": false,
      "rstrip": false,
      "normalized": false,
      "special": true
    },
    {
      "id": 2,
      "content": "[BOS]",
      "single_word": false,
      "lstrip": false,
      "rstrip": false,
      "normalized": false,
      "special": true
    },
    {
      "id": 3,
      "content": "[EOS]",
      "single_word": false,
      "lstrip": false,
      "rstrip": false,
      "normalized": false,
      "special": true
    }
  ],
  "normalizer": null,
  "pre_tokenizer": {
    "type": "Whitespace"
  },
  "post_processor": {
    "type": "TemplateProcessing",
    "single": [
      {
        "SpecialToken": {
          "id": "[BOS]",
          "type_id": 0
        }
      },
      {
        "Sequence": {
          "id": "A",
          "type_id": 0
        }
      },
      {
        "SpecialToken": {
          "id": "[EOS]",
          "type_id": 0
        }
      }
    ],
    "pair": [
      {
        "Sequence": {
          "id": "A",
          "type_id": 0
        }
      },
      {
        "Sequence": {
          "id": "B",
          "type_id": 1
        }
      }
    ],
    "special_tokens": {
      "[BOS]": {
        "id": "[BOS]",
        "ids": [
          2
        ],
        "tokens": [
          "[BOS]"
        ]
      },
      "[EOS]": {
        "id": "[EOS]",
        "ids": [
          3
        ],
        "tokens": [
          "[EOS]"
        ]
      }
    }
  },
  "decoder": null,
  "model": {
    "type": "BPE",
    "dropout": null,
    "unk_token": null,
    "continuing_subword_prefix": null,
    "end_of_word_suffix": null,
    "fuse_unk": false,
    "byte_fallback": false,
    "ignore_merges": false,
    "vocab": {
      "[PAD]": 0,
      "[UNK]": 1,
      "[BOS]": 2,
      "[EOS]": 3,
      "!": 4,
      "\"": 5,
      "#": 6,
      "$": 7,
      "%": 8,
      "&": 9,
      "'": 10,
      ")": 11,
      "*": 12,
      "+": 13,
      ",": 14,
      "-": 15,
      ".": 16,
      "/": 17,
      "0": 18,
      "1": 19,
      "2": 20,
      "3": 21,
      "4": 22,
      "5": 23,
      "6": 24,
      "7": 25,
      "8": 26,
      "9": 27,
      ":": 28,
      ";": 29,
      "<": 30,
      "=": 31,
      ">": 32,
      "?": 33,
      "A": 34,
      "B": 35,
      "C": 36,
      "D": 37,
      "E": 38,
      "F": 39,
      "G": 40,
      "H": 41,
      "I": 42,
      "J": 43,
      "K": 44,
      "L": 45,
      "M": 46,
      "N": 47,
      "O": 48,
      "P": 49,
      "Q": 50,
      "R": 51,
      "S": 52,
      "T": 53,
      "U": 54,
      "V": 55,
      "W": 56,
      "X": 57,
      "Y": 58,
      "Z": 59,
      "[": 60,
      "]": 61,
      "^": 62,
      "_": 63,
      "`": 64,
      "a": 65,
      "b": 66,
      "c": 67,
      "d": 68,
      "e": 69,
      "f": 70,
      "g": 71,
      "h": 72,
      "i": 73,
      "j": 74,
      "k": 75,
      "l": 76,
      "m": 77,
      "n": 78,
      "o": 79,
      "p": 80,
      "q": 81,
      "r": 82,
      "s": 83,
      "t": 84,
      "u": 85,
      "v": 86,
      "w": 87,
      "x": 88,
      "y": 89,
      "z": 90,
      "{": 91,
      "|": 92,
      "}": 93,
      "~": 94,
      "": 95,
      "": 96,
      "": 97,
      "": 98,
      "": 99,
      "": 100,
      "": 101,
      "": 102,
      "": 103,
      "­": 104,
      "Ç": 105,
      "É": 106,
      "Ó": 107,
      "Ô": 108,
      "Ü": 109,
      "ß": 110,
      "á": 111,
      "â": 112,
      "ä": 113,
      "ç": 114,
      "é": 115,
      "í": 116,
      "ó": 117,
      "ú": 118,
      "ü": 119,
      "Č": 120,
      "č": 121,
      "ď": 122,
      "ę": 123,
      "Ľ": 124,
      "Ł": 125,
      "ł": 126,
      "ń": 127,
      "Ň": 128,
      "Ő": 129,
      "ŕ": 130,
      "š": 131,
      "Ť": 132,
      "ů": 133,
      "ű": 134,
      "ˇ": 135,
      "˛": 136,
      "th": 137,
      "ou": 138,
      "in": 139,
      "er": 140,
      "an": 141,
      "at": 142,
      "you": 143,
      "on": 144,
      "re": 145,
      "the": 146,
      "to": 147,
      "..": 148,
      "me": 149,
      "ll": 150,
      "ing": 151,
      "is": 152,
      "it": 153,
      "he": 154,
      "or": 155,
      "st": 156,
      "ve": 157,
      "ow": 158,
      "se": 159,
      "ar": 160,
      "le": 161,
      "en": 162,
      "hat": 163,
      "be": 164,
      "as": 165,
      "...": 166,
      "and": 167,
      "ot": 168,
      "ed": 169,
      "ay": 170,
      "of": 171,
      "ere": 172,
      "ha": 173,
      "es": 174,
      "You": 175,
      "id": 176,
      "al": 177,
      "that": 178,
      "gh": 179,
      "ke": 180,
      "ld": 181,
      "li": 182,
      "do": 183,
      "now": 184,
      "et": 185,
      "out": 186,
      "ut": 187,
      "all": 188,
      "ck": 189,
      "ome": 190,
      "ght": 191,
      "oo": 192,
      "ver": 193,
      "--": 194,
      "ri": 195,
      "for": 196,
      "we": 197,
      "wi": 198,
      "ch": 199,
      "nd": 200,
      "know": 201,
      "here": 202,
      "one": 203,
      "ad": 204,
      "ce": 205,
      "ro": 206,
      "have": 207,
      "What": 208,
      "ab": 209,
      "go": 210,
      "thing": 211,
      "don": 212,
      "your": 213,
      "was": 214,
      "ust": 215,
      "are": 216,
      "hi": 217,
      "my": 218,
      "ould": 219,
      "ne": 220,
      "The": 221,
      "ti": 222,
      "We": 223,
      "ant": 224,
      "this": 225,
      "ir": 226,
      "what": 227,
      "not": 228,
      "with": 229,
      "It": 230,
      "ly": 231,
      "ho": 232,
      "can": 233,
      "up": 234,
      "get": 235,
      "He": 236,
      "us": 237,
      "am": 238,
      "some": 239,
      "ther": 240,
      "No": 241,
      "ta": 242,
      "ink": 243,
      "ter": 244,
      "ry": 245,
      "want": 246,
      "like": 247,
      "if": 248,
      "about": 249,
      "un": 250,
      "ea": 251,
      "no": 252,
      "got": 253,
      "mo": 254,
      "ion": 255,
      "lo": 256,
      "fe": 257,
      "just": 258,
      "ra": 259,
      "any": 260,
      "him": 261,
      "did": 262,
      "co": 263,
      "ill": 264,
      "so": 265,
      "think": 266,
      "sh": 267,
      "te": 268,
      "la": 269,
      "ur": 270,
      "way": 271,
      "his": 272,
      "ight": 273,
      "pe": 274,
      "de": 275,
      "bo": 276,
      "wor": 277,
      "That": 278,
      "ook": 279,
      "ct": 280,
      "And": 281,
      "there": 282,
      "they": 283,
      "sa": 284,
      "ma": 285,
      "man": 286,
      "her": 287,
      "ca": 288,
      "hy": 289,
      "ood": 290,
      "our": 291,
      "right": 292,
      "ind": 293,
      "ge": 294,
      "but": 295,
      "na": 296,
      "nt": 297,
      "po": 298,
      "ure": 299,
      "very": 300,
      "ent": 301,
      "see": 302,
      "ic": 303,
      "ple": 304,
      "ive": 305,
      "going": 306,
      "ba": 307,
      "But": 308,
      "use": 309,
      "time": 310,
      "ally": 311,
      "pp": 312,
      "el": 313,
      "gu": 314,
      "uck": 315,
      "rom": 316,
      "art": 317,
      "say": 318,
      "would": 319,
      "she": 320,
      "Well": 321,
      "Oh": 322,
      "hen": 323,
      "alk": 324,
      "eah": 325,
      "ard": 326,
      "own": 327,
      "ig": 328,
      "who": 329,
      "ie": 330,
      "dy": 331,
      "ong": 332,
      "tell": 333,
      "How": 334,
      "ex": 335,
      "con": 336,
      "could": 337,
      "ine": 338,
      "Yes": 339,
      "fa": 340,
      "per": 341,
      "ate": 342,
      "ound": 343,
      "ss": 344,
      "end": 345,
      "eve": 346,
      "been": 347,
      "ul": 348,
      "They": 349,
      "from": 350,
      "Yeah": 351,
      "come": 352,
      "back": 353,
      "ist": 354,
      "too": 355,
      "were": 356,
      "mean": 357,
      "them": 358,
      "look": 359,
      "mp": 360,
      "ess": 361,
      "qu": 362,
      "had": 363,
      "day": 364,
      "Why": 365,
      "ain": 366,
      "lf": 367,
      "off": 368,
      "talk": 369,
      "good": 370,
      "will": 371,
      "lit": 372,
      "didn": 373,
      "ep": 374,
      "ation": 375,
      "So": 376,
      "und": 377,
      "She": 378,
      "Do": 379,
      "wo": 380,
      "tle": 381,
      "mb": 382,
      "how": 383,
      "ank": 384,
      "ous": 385,
      "ag": 386,
      "tr": 387,
      "ye": 388,
      "more": 389,
      "sp": 390,
      "other": 391,
      "take": 392,
      "when": 393,
      "fo": 394,
      "ty": 395,
      "never": 396,
      "ough": 397,
      "il": 398,
      "ble": 399,
      "something": 400,
      "ick": 401,
      "work": 402,
      "uch": 403,
      "pro": 404,
      "ers": 405,
      "need": 406,
      "ac": 407,
      "lea": 408,
      "ever": 409,
      "body": 410,
      "Don": 411,
      "ought": 412,
      "every": 413,
      "ice": 414,
      "call": 415,
      "ars": 416,
      "happ": 417,
      "down": 418,
      "over": 419,
      "If": 420,
      "This": 421,
      "pl": 422,
      "fuck": 423,
      "where": 424,
      "Mr": 425,
      "kay": 426,
      "make": 427,
      "let": 428,
      "gon": 429,
      "by": 430,
      "little": 431,
      "self": 432,
      "red": 433,
      "cause": 434,
      "ople": 435,
      "ide": 436,
      "gonna": 437,
      "does": 438,
      "af": 439,
      "should": 440,
      "sto": 441,
      "Go": 442,
      "pre": 443,
      "aybe": 444,
      "kill": 445,
      "ass": 446,
      "There": 447,
      "really": 448,
      "has": 449,
      "guy": 450,
      "com": 451,
      "bet": 452,
      "won": 453,
      "love": 454,
      "int": 455,
      "people": 456,
      "Th": 457,
      "give": 458,
      "said": 459,
      "oney": 460,
      "ort": 461,
      "then": 462,
      "new": 463,
      "ment": 464,
      "</": 465,
      "much": 466,
      "ob": 467,
      "im": 468,
      "happen": 469,
      "pla": 470,
      "son": 471,
      "che": 472,
      "ree": 473,
      "Where": 474,
      "why": 475,
      "only": 476,
      "Who": 477,
      "ting": 478,
      "fore": 479,
      "night": 480,
      "ving": 481,
      "bu": 482,
      "ask": 483,
      "sed": 484,
      "Is": 485,
      "mor": 486,
      "read": 487,
      "under": 488,
      "wr": 489,
      "sc": 490,
      "stand": 491,
      "even": 492,
      "sure": 493,
      "ap": 494,
      "ite": 495,
      "Not": 496,
      "reat": 497,
      "uh": 498,
      "orry": 499,
      "iss": 500,
      "Be": 501,
      "Just": 502,
      "My": 503,
      "thought": 504,
      "two": 505,
      "di": 506,
      "ru": 507,
      "anything": 508,
      "ny": 509,
      "tion": 510,
      "feel": 511,
      "mber": 512,
      "Now": 513,
      "riend": 514,
      "long": 515,
      "lp": 516,
      "wa": 517,
      "into": 518,
      "min": 519,
      "doing": 520,
      "su": 521,
      "old": 522,
      "try": 523,
      "ning": 524,
      "find": 525,
      "again": 526,
      "tor": 527,
      "der": 528,
      "ang": 529,
      "ish": 530,
      "than": 531,
      "life": 532,
      "gr": 533,
      "ff": 534,
      "est": 535,
      "ose": 536,
      "ways": 537,
      "help": 538,
      "irst": 539,
      "lieve": 540,
      "money": 541,
      "pr": 542,
      "friend": 543,
      "ade": 544,
      "king": 545,
      "told": 546,
      "well": 547,
      "ci": 548,
      "Are": 549,
      "ity": 550,
      "name": 551,
      "around": 552,
      "cou": 553,
      "ave": 554,
      "em": 555,
      "put": 556,
      "before": 557,
      "In": 558,
      "gir": 559,
      "Did": 560,
      "pa": 561,
      "things": 562,
      "act": 563,
      "able": 564,
      "must": 565,
      "shit": 566,
      "still": 567,
      "br": 568,
      "Look": 569,
      "mon": 570,
      "ance": 571,
      "believe": 572,
      "ps": 573,
      "All": 574,
      "Let": 575,
      "kind": 576,
      "thr": 577,
      "Ch": 578,
      "went": 579,
      "sorry": 580,
      "God": 581,
      "last": 582,
      "car": 583,
      "mar": 584,
      "ins": 585,
      "better": 586,
      "si": 587,
      "tra": 588,
      "years": 589,
      "sir": 590,
      "place": 591,
      "away": 592,
      "kid": 593,
      "Then": 594,
      "To": 595,
      "care": 596,
      "run": 597,
      "head": 598,
      "lot": 599,
      "ue": 600,
      "Maybe": 601,
      "Re": 602,
      "girl": 603,
      "ool": 604,
      "cour": 605,
      "whi": 606,
      "after": 607,
      "always": 608,
      "ried": 609,
      "real": 610,
      "keep": 611,
      "first": 612,
      "bl": 613,
      "Okay": 614,
      "ull": 615,
      "Some": 616,
      "bab": 617,
      "ton": 618,
      "Jo": 619,
      "rea": 620,
      "home": 621,
      "sup": 622,
      "isten": 623,
      "urn": 624,
      "oom": 625,
      "Thank": 626,
      "ten": 627,
      "these": 628,
      "boy": 629,
      "nothing": 630,
      "res": 631,
      "their": 632,
      "ft": 633,
      "mat": 634,
      "member": 635,
      "those": 636,
      "part": 637,
      "kes": 638,
      "dis": 639,
      "live": 640,
      "ouse": 641,
      "les": 642,
      "sit": 643,
      "understand": 644,
      "bad": 645,
      "hand": 646,
      "When": 647,
      "ise": 648,
      "doesn": 649,
      "big": 650,
      "because": 651,
      "ans": 652,
      "Can": 653,
      "clo": 654,
      "Hey": 655,
      "fi": 656,
      "Good": 657,
      "eri": 658,
      "Your": 659,
      "men": 660,
      "yes": 661,
      "dam": 662,
      "okay": 663,
      "For": 664,
      "play": 665,
      "start": 666,
      "Ma": 667,
      "hell": 668,
      "wait": 669,
      "iz": 670,
      "bus": 671,
      "course": 672,
      "mind": 673,
      "isn": 674,
      "St": 675,
      "atch": 676,
      "wouldn": 677,
      "talking": 678,
      "mm": 679,
      "might": 680,
      "minut": 681,
      "Co": 682,
      "ence": 683,
      "ary": 684,
      "hear": 685,
      "row": 686,
      "else": 687,
      "ild": 688,
      "dead": 689,
      "cle": 690,
      "fer": 691,
      "op": 692,
      "ner": 693,
      "ful": 694,
      "ready": 695,
      "stay": 696,
      "vi": 697,
      "house": 698,
      "age": 699,
      "made": 700,
      "guess": 701,
      "wrong": 702,
      "stu": 703,
      "wanted": 704,
      "everything": 705,
      "ell": 706,
      "happened": 707,
      "ek": 708,
      "tain": 709,
      "leave": 710,
      "show": 711,
      "ater": 712,
      "great": 713,
      "Ja": 714,
      "ng": 715,
      "Come": 716,
      "cra": 717,
      "remember": 718,
      "ven": 719,
      "yourself": 720,
      "most": 721,
      "enough": 722,
      "ms": 723,
      "room": 724,
      "done": 725,
      "ph": 726,
      "came": 727,
      "comp": 728,
      "through": 729,
      "Mo": 730,
      "job": 731,
      "bit": 732,
      "bro": 733,
      "ike": 734,
      "ange": 735,
      "Se": 736,
      "father": 737,
      "ord": 738,
      "three": 739,
      "au": 740,
      "ret": 741,
      "Sh": 742,
      "wasn": 743,
      "getting": 744,
      "gotta": 745,
      "cl": 746,
      "maybe": 747,
      "pt": 748,
      "?!": 749,
      "set": 750,
      "mother": 751,
      "um": 752,
      "week": 753,
      "ctor": 754,
      "suppo": 755,
      "left": 756,
      "fucking": 757,
      "iness": 758,
      "imp": 759,
      "ies": 760,
      "saw": 761,
      "world": 762,
      "tic": 763,
      "less": 764,
      "....": 765,
      "ster": 766,
      "being": 767,
      "pect": 768,
      "ase": 769,
      "used": 770,
      "damn": 771,
      "times": 772,
      "ign": 773,
      "knew": 774,
      "sho": 775,
      "ud": 776,
      "shi": 777,
      "trying": 778,
      "quest": 779,
      "brea": 780,
      "another": 781,
      "Al": 782,
      "fin": 783,
      "ste": 784,
      "matter": 785,
      "vo": 786,
      "pret": 787,
      "coming": 788,
      "Ne": 789,
      "dif": 790,
      "someone": 791,
      "ame": 792,
      "An": 793,
      "side": 794,
      "heard": 795,
      "...?": 796,
      "Get": 797,
      "ya": 798,
      "cer": 799,
      "count": 800,
      "ction": 801,
      "huh": 802,
      "point": 803,
      "rest": 804,
      "nice": 805,
      "hard": 806,
      "seen": 807,
      "fine": 808,
      "plan": 809,
      "word": 810,
      "meet": 811,
      "whole": 812,
      "five": 813,
      "Sure": 814,
      "looking": 815,
      "hn": 816,
      "par": 817,
      "wer": 818,
      "ince": 819,
      "die": 820,
      "du": 821,
      "Fr": 822,
      "same": 823,
      "person": 824,
      "dr": 825,
      "business": 826,
      "lad": 827,
      "haven": 828,
      "Of": 829,
      "jo": 830,
      "hour": 831,
      "mi": 832,
      "undred": 833,
      "ated": 834,
      "!!": 835,
      "fun": 836,
      "leep": 837,
      "guys": 838,
      "John": 839,
      "please": 840,
      "walk": 841,
      "Right": 842,
      "med": 843,
      "Every": 844,
      "dre": 845,
      "On": 846,
      "while": 847,
      "pay": 848,
      "hundred": 849,
      "killed": 850,
      "idea": 851,
      "hur": 852,
      "proble": 853,
      "each": 854,
      "fam": 855,
      "turn": 856,
      "ved": 857,
      "question": 858,
      "pi": 859,
      "Any": 860,
      "best": 861,
      "stop": 862,
      "Tell": 863,
      "miss": 864,
      "deal": 865,
      "spe": 866,
      "Because": 867,
      "Mar": 868,
      "sen": 869,
      "wife": 870,
      "cut": 871,
      "wn": 872,
      "ason": 873,
      "Uh": 874,
      "ily": 875,
      "many": 876,
      "tonight": 877,
      "sch": 878,
      "morrow": 879,
      "Hell": 880,
      "De": 881,
      "ses": 882,
      "found": 883,
      "gg": 884,
      "ually": 885,
      "cond": 886,
      "ister": 887,
      "Like": 888,
      "lease": 889,
      "woman": 890,
      "myself": 891,
      "sha": 892,
      "zy": 893,
      "couldn": 894,
      "Have": 895,
      "ces": 896,
      "pri": 897,
      "Ex": 898,
      "dri": 899,
      "sur": 900,
      "war": 901,
      "pretty": 902,
      "des": 903,
      "tri": 904,
      "light": 905,
      "differ": 906,
      "ident": 907,
      "Will": 908,
      "led": 909,
      "air": 910,
      "til": 911,
      "land": 912,
      "bed": 913,
      "few": 914,
      "As": 915,
      "lie": 916,
      "called": 917,
      "ago": 918,
      "ves": 919,
      "gether": 920,
      "late": 921,
      "listen": 922,
      "its": 923,
      "stuff": 924,
      "str": 925,
      "may": 926,
      "morning": 927,
      "together": 928,
      "cy": 929,
      "Chr": 930,
      "thank": 931,
      "already": 932,
      "days": 933,
      "Please": 934,
      "ket": 935,
      "saying": 936,
      "cent": 937,
      "bably": 938,
      "bor": 939,
      "sent": 940,
      "yet": 941,
      "ren": 942,
      "Ro": 943,
      "xt": 944,
      "bea": 945,
      "mis": 946,
      "without": 947,
      "cha": 948,
      "four": 949,
      "case": 950,
      "ser": 951,
      "llow": 952,
      "anna": 953,
      "raid": 954,
      "sm": 955,
      "Me": 956,
      "school": 957,
      "swe": 958,
      "ouble": 959,
      "ings": 960,
      "One": 961,
      "ear": 962,
      "Or": 963,
      "ult": 964,
      "gun": 965,
      "six": 966,
      "erest": 967,
      "drink": 968,
      "yeah": 969,
      "child": 970,
      "low": 971,
      "far": 972,
      "tomorrow": 973,
      "wonder": 974,
      "Dad": 975,
      "Jes": 976,
      "ith": 977,
      "pick": 978,
      "next": 979,
      "pped": 980,
      "Bo": 981,
      "ling": 982,
      "ssi": 983,
      "alone": 984,
      "Nothing": 985,
      "ash": 986,
      "Ta": 987,
      "ub": 988,
      "took": 989,
      "town": 990,
      "watch": 991,
      "ark": 992,
      "aw": 993,
      "doll": 994,
      "Am": 995,
      "eat": 996,
      "crazy": 997,
      "sleep": 998,
      "open": 999,
      "app": 1000,
      "minute": 1001,
      "ast": 1002,
      "vis": 1003,
      "hed": 1004,
      "wenty": 1005,
      "ousand": 1006,
      "says": 1007,
      "ect": 1008,
      "baby": 1009,
      "wants": 1010,
      "actly": 1011,
      "lice": 1012,
      "gone": 1013,
      "worry": 1014,
      "thousand": 1015,
      "cho": 1016,
      "Thanks": 1017,
      "book": 1018,
      "hold": 1019,
      "problem": 1020,
      "igure": 1021,
      "Hi": 1022,
      "afraid": 1023,
      "friends": 1024,
      "month": 1025,
      "face": 1026,
      "interest": 1027,
      "once": 1028,
      "lic": 1029,
      "nu": 1030,
      "sing": 1031,
      "brother": 1032,
      "rew": 1033,
      "ared": 1034,
      "ken": 1035,
      "today": 1036,
      "mit": 1037,
      "hurt": 1038,
      "knows": 1039,
      "Listen": 1040,
      "possi": 1041,
      "bring": 1042,
      "asy": 1043,
      "half": 1044,
      "law": 1045,
      "hope": 1046,
      "year": 1047,
      "Jack": 1048,
      "supposed": 1049,
      "Le": 1050,
      "ical": 1051,
      "ither": 1052,
      "thinking": 1053,
      "shot": 1054,
      "break": 1055,
      "Jesus": 1056,
      "reason": 1057,
      "door": 1058,
      "sec": 1059,
      "anyone": 1060,
      "check": 1061,
      "such": 1062,
      "aren": 1063,
      "ger": 1064,
      "ah": 1065,
      "hit": 1066,
      "sy": 1067,
      "mes": 1068,
      "key": 1069,
      "gen": 1070,
      "Christ": 1071,
      "figure": 1072,
      "since": 1073,
      "Un": 1074,
      "form": 1075,
      "port": 1076,
      "Je": 1077,
      "At": 1078,
      "which": 1079,
      "ship": 1080,
      "gs": 1081,
      "second": 1082,
      "Mrs": 1083,
      "Miss": 1084,
      "Wa": 1085,
      "probably": 1086,
      "minutes": 1087,
      "phone": 1088,
      "god": 1089,
      "Here": 1090,
      "prom": 1091,
      "Ar": 1092,
      "fight": 1093,
      "full": 1094,
      "tru": 1095,
      "story": 1096,
      "married": 1097,
      "Would": 1098,
      "met": 1099,
      "makes": 1100,
      "ia": 1101,
      "wanna": 1102,
      "av": 1103,
      "Dr": 1104,
      "mag": 1105,
      "beaut": 1106,
      "arn": 1107,
      "until": 1108,
      "sound": 1109,
      "working": 1110,
      "Ge": 1111,
      "ird": 1112,
      "soon": 1113,
      "00": 1114,
      "top": 1115,
      "family": 1116,
      "move": 1117,
      "Har": 1118,
      "Br": 1119,
      "ian": 1120,
      "vie": 1121,
      "hot": 1122,
      "trouble": 1123,
      "somebody": 1124,
      "ating": 1125,
      "vor": 1126,
      "seri": 1127,
      "Ho": 1128,
      "cr": 1129,
      "cture": 1130,
      "fif": 1131,
      "lack": 1132,
      "iful": 1133,
      "ced": 1134,
      "lost": 1135,
      "cor": 1136,
      "wish": 1137,
      "ery": 1138,
      "New": 1139,
      "true": 1140,
      "hu": 1141,
      "gave": 1142,
      "illion": 1143,
      "heart": 1144,
      "ball": 1145,
      "ower": 1146,
      "fr": 1147,
      "eath": 1148,
      "game": 1149,
      "different": 1150,
      "ness": 1151,
      "happy": 1152,
      "pen": 1153,
      "gets": 1154,
      "band": 1155,
      "change": 1156,
      "least": 1157,
      "Lo": 1158,
      "char": 1159,
      "See": 1160,
      "twenty": 1161,
      "young": 1162,
      "Ab": 1163,
      "ations": 1164,
      "kids": 1165,
      "lock": 1166,
      "Hello": 1167,
      "cri": 1168,
      "fect": 1169,
      "luck": 1170,
      "ize": 1171,
      "import": 1172,
      "log": 1173,
      "Wait": 1174,
      "unch": 1175,
      "ding": 1176,
      "hate": 1177,
      "having": 1178,
      "buy": 1179,
      "als": 1180,
      "lin": 1181,
      "acc": 1182,
      "cept": 1183,
      "Take": 1184,
      "thin": 1185,
      "asked": 1186,
      "io": 1187,
      "exactly": 1188,
      "anyway": 1189,
      "ane": 1190,
      "teen": 1191,
      "ator": 1192,
      "police": 1193,
      "ef": 1194,
      "comes": 1195,
      "ress": 1196,
      "trust": 1197,
      "Really": 1198,
      "dollars": 1199,
      "dro": 1200,
      "sk": 1201,
      "mine": 1202,
      "With": 1203,
      "close": 1204,
      "high": 1205,
      "chance": 1206,
      "fuckin": 1207,
      "cial": 1208,
      "anymore": 1209,
      "cti": 1210,
      "ber": 1211,
      "ual": 1212,
      "OU": 1213,
      "important": 1214,
      "both": 1215,
      "ked": 1216,
      "sol": 1217,
      "hor": 1218,
      "bar": 1219,
      "reet": 1220,
      "couple": 1221,
      "Ca": 1222,
      "dec": 1223,
      "----": 1224,
      "hours": 1225,
      "Frank": 1226,
      "eak": 1227,
      "serious": 1228,
      "bra": 1229,
      "inter": 1230,
      "Sorry": 1231,
      "expect": 1232,
      "outh": 1233,
      "ont": 1234,
      "telling": 1235,
      "beautiful": 1236,
      "din": 1237,
      "sign": 1238,
      "making": 1239,
      "line": 1240,
      "million": 1241,
      "anybody": 1242,
      "cont": 1243,
      "taking": 1244,
      "Fuck": 1245,
      "though": 1246,
      "den": 1247,
      "lor": 1248,
      "till": 1249,
      "blood": 1250,
      "dream": 1251,
      "sex": 1252,
      "Po": 1253,
      "ward": 1254,
      "ze": 1255,
      "ons": 1256,
      "truth": 1257,
      "pie": 1258,
      "rec": 1259,
      "eight": 1260,
      "ail": 1261,
      "send": 1262,
      "easy": 1263,
      "Char": 1264,
      "cus": 1265,
      "yours": 1266,
      "Does": 1267,
      "shoot": 1268,
      "stra": 1269,
      "pull": 1270,
      "HE": 1271,
      "fact": 1272,
      "later": 1273,
      "rid": 1274,
      "ley": 1275,
      "quite": 1276,
      "water": 1277,
      "looks": 1278,
      "Car": 1279,
      "sick": 1280,
      "ones": 1281,
      "mur": 1282,
      "follow": 1283,
      "possible": 1284,
      "His": 1285,
      "Cap": 1286,
      "eral": 1287,
      "picture": 1288,
      "tried": 1289,
      "eyes": 1290,
      "fort": 1291,
      "goes": 1292,
      "forget": 1293,
      "sense": 1294,
      "irty": 1295,
      "Gr": 1296,
      "power": 1297,
      "ire": 1298,
      "'.": 1299,
      "gi": 1300,
      "Two": 1301,
      "fl": 1302,
      "ele": 1303,
      "ute": 1304,
      "hite": 1305,
      "doctor": 1306,
      "ork": 1307,
      "died": 1308,
      "ama": 1309,
      "beg": 1310,
      "omen": 1311,
      "death": 1312,
      "wear": 1313,
      "ition": 1314,
      "free": 1315,
      "ev": 1316,
      "ison": 1317,
      "against": 1318,
      "ond": 1319,
      "tou": 1320,
      "cover": 1321,
      "IN": 1322,
      "gra": 1323,
      "wel": 1324,
      "fire": 1325,
      "hh": 1326,
      "cess": 1327,
      "Ed": 1328,
      "answer": 1329,
      "hus": 1330,
      "cuse": 1331,
      "anger": 1332,
      "enti": 1333,
      "conf": 1334,
      "lt": 1335,
      "ump": 1336,
      "country": 1337,
      "fast": 1338,
      "bull": 1339,
      "Af": 1340,
      "husband": 1341,
      "ned": 1342,
      "sort": 1343,
      "along": 1344,
      "inside": 1345,
      "means": 1346,
      "Mom": 1347,
      "upid": 1348,
      "test": 1349,
      "Ameri": 1350,
      "waiting": 1351,
      "wit": 1352,
      "ates": 1353,
      "worth": 1354,
      "ather": 1355,
      "ks": 1356,
      "Bill": 1357,
      "ring": 1358,
      "ote": 1359,
      "vol": 1360,
      "hun": 1361,
      "coll": 1362,
      "certain": 1363,
      "months": 1364,
      "Chi": 1365,
      "ters": 1366,
      "ross": 1367,
      "arent": 1368,
      "lau": 1369,
      "ween": 1370,
      "mer": 1371,
      "learn": 1372,
      "Man": 1373,
      "Pe": 1374,
      "suppose": 1375,
      "Huh": 1376,
      "number": 1377,
      "hind": 1378,
      "party": 1379,
      "Jim": 1380,
      "office": 1381,
      "dad": 1382,
      "clear": 1383,
      "Geor": 1384,
      "ghter": 1385,
      "Pa": 1386,
      "dra": 1387,
      "cop": 1388,
      "gent": 1389,
      "cu": 1390,
      "either": 1391,
      "murder": 1392,
      "wind": 1393,
      "ital": 1394,
      "cks": 1395,
      "Never": 1396,
      "terri": 1397,
      "speak": 1398,
      "funny": 1399,
      "everybody": 1400,
      "ler": 1401,
      "hair": 1402,
      "stupid": 1403,
      "bi": 1404,
      "fall": 1405,
      "actually": 1406,
      "Give": 1407,
      "sid": 1408,
      "alive": 1409,
      "plain": 1410,
      "Was": 1411,
      "writ": 1412,
      "paper": 1413,
      "hands": 1414,
      "Captain": 1415,
      "Ben": 1416,
      "fic": 1417,
      "qui": 1418,
      "mome": 1419,
      "vel": 1420,
      "pain": 1421,
      "vice": 1422,
      "ched": 1423,
      "sub": 1424,
      "ised": 1425,
      "behind": 1426,
      "safe": 1427,
      "women": 1428,
      "moment": 1429,
      "Tom": 1430,
      "det": 1431,
      "appe": 1432,
      "Tho": 1433,
      "pat": 1434,
      "himself": 1435,
      "ted": 1436,
      "seem": 1437,
      "Got": 1438,
      "cked": 1439,
      "lose": 1440,
      "between": 1441,
      "started": 1442,
      "Sir": 1443,
      "Could": 1444,
      "dest": 1445,
      "May": 1446,
      "secret": 1447,
      "record": 1448,
      "exper": 1449,
      "running": 1450,
      "Whi": 1451,
      "order": 1452,
      "ions": 1453,
      "Nobody": 1454,
      "sel": 1455,
      "vers": 1456,
      "nobody": 1457,
      "ush": 1458,
      "fair": 1459,
      "Her": 1460,
      "rel": 1461,
      "zz": 1462,
      "cal": 1463,
      "arr": 1464,
      "Ah": 1465,
      "mid": 1466,
      "living": 1467,
      "Cl": 1468,
      "win": 1469,
      "apart": 1470,
      "George": 1471,
      "honey": 1472,
      "ards": 1473,
      "Con": 1474,
      "comple": 1475,
      "front": 1476,
      "scared": 1477,
      "dinner": 1478,
      "seven": 1479,
      "goddamn": 1480,
      "shouldn": 1481,
      "About": 1482,
      "shut": 1483,
      "dau": 1484,
      "lead": 1485,
      "drive": 1486,
      "almost": 1487,
      "fifty": 1488,
      "ught": 1489,
      "haps": 1490,
      "dog": 1491,
      "dress": 1492,
      "ahead": 1493,
      "nat": 1494,
      "Ba": 1495,
      "feeling": 1496,
      "Bob": 1497,
      "taken": 1498,
      "Something": 1499,
      "clean": 1500,
      "Bet": 1501,
      "Per": 1502,
      "favor": 1503,
      "boys": 1504,
      "nor": 1505,
      "press": 1506,
      "Say": 1507,
      "Fine": 1508,
      "chang": 1509,
      "human": 1510,
      "ped": 1511,
      "ctive": 1512,
      "rad": 1513,
      "happens": 1514,
      "ished": 1515,
      "build": 1516,
      "beat": 1517,
      "Mic": 1518,
      "YOU": 1519,
      "cur": 1520,
      "arm": 1521,
      "Ri": 1522,
      "tin": 1523,
      "Sam": 1524,
      "Very": 1525,
      "cli": 1526,
      "posit": 1527,
      "news": 1528,
      "children": 1529,
      "mus": 1530,
      "tory": 1531,
      "hole": 1532,
      "sister": 1533,
      "ix": 1534,
      "Gu": 1535,
      "hang": 1536,
      "street": 1537,
      "everyone": 1538,
      "gn": 1539,
      "mas": 1540,
      "whatever": 1541,
      "Only": 1542,
      "asking": 1543,
      "straight": 1544,
      "gar": 1545,
      "write": 1546,
      "brought": 1547,
      "RE": 1548,
      "black": 1549,
      "touch": 1550,
      "sell": 1551,
      "lady": 1552,
      "Pet": 1553,
      "inc": 1554,
      "gest": 1555,
      "daughter": 1556,
      "ient": 1557,
      "weeks": 1558,
      "York": 1559,
      "ounds": 1560,
      "weren": 1561,
      "rol": 1562,
      "Sc": 1563,
      "thy": 1564,
      "outside": 1565,
      "tired": 1566,
      "je": 1567,
      "nty": 1568,
      "Joe": 1569,
      "train": 1570,
      "After": 1571,
      "wall": 1572,
      "thirty": 1573,
      "resp": 1574,
      "also": 1575,
      "psy": 1576,
      "ier": 1577,
      "ries": 1578,
      "ert": 1579,
      "girls": 1580,
      "Nor": 1581,
      "ience": 1582,
      "mad": 1583,
      "lives": 1584,
      "Ste": 1585,
      "ak": 1586,
      "Pr": 1587,
      ".'": 1588,
      "ony": 1589,
      "Eng": 1590,
      "Lu": 1591,
      "Mary": 1592,
      "dear": 1593,
      "ject": 1594,
      "ude": 1595,
      "ney": 1596,
      "glad": 1597,
      "len": 1598,
      "ucks": 1599,
      "perfect": 1600,
      "Pro": 1601,
      "known": 1602,
      "lity": 1603,
      "gre": 1604,
      "gue": 1605,
      "vin": 1606,
      "small": 1607,
      ">.": 1608,
      "mouth": 1609,
      "oun": 1610,
      "Which": 1611,
      "nie": 1612,
      "Qu": 1613,
      "dle": 1614,
      "comm": 1615,
      "Stop": 1616,
      "Bar": 1617,
      "bur": 1618,
      "gl": 1619,
      "leg": 1620,
      "alright": 1621,
      "thanks": 1622,
      "Ke": 1623,
      "pass": 1624,
      "fool": 1625,
      "inst": 1626,
      "surpr": 1627,
      "piece": 1628,
      "fee": 1629,
      "ments": 1630,
      "ited": 1631,
      "ran": 1632,
      "lying": 1633,
      "cold": 1634,
      "ace": 1635,
      "ious": 1636,
      "parent": 1637,
      "sim": 1638,
      "seems": 1639,
      "Pres": 1640,
      "whe": 1641,
      "ene": 1642,
      "grand": 1643,
      "class": 1644,
      "dist": 1645,
      "danger": 1646,
      "val": 1647,
      "report": 1648,
      "goin": 1649,
      "somewhere": 1650,
      "pping": 1651,
      "spital": 1652,
      "cre": 1653,
      "bother": 1654,
      "ches": 1655,
      "Ju": 1656,
      "throw": 1657,
      "ats": 1658,
      "road": 1659,
      "needs": 1660,
      "cam": 1661,
      "alter": 1662,
      "ris": 1663,
      "complete": 1664,
      "ield": 1665,
      "atta": 1666,
      "food": 1667,
      "lish": 1668,
      "thinks": 1669,
      "accident": 1670,
      "AN": 1671,
      "catch": 1672,
      "bitch": 1673,
      "Par": 1674,
      "near": 1675,
      "lar": 1676,
      "lay": 1677,
      "dru": 1678,
      "lly": 1679,
      "Sp": 1680,
      "bank": 1681,
      "cell": 1682,
      "Dan": 1683,
      "movie": 1684,
      "Shut": 1685,
      "ides": 1686,
      "takes": 1687,
      "offer": 1688,
      "Harry": 1689,
      "Che": 1690,
      "flo": 1691,
      "stick": 1692,
      "President": 1693,
      "reg": 1694,
      "mach": 1695,
      "offic": 1696,
      "joy": 1697,
      "solute": 1698,
      "Bu": 1699,
      "looked": 1700,
      "explain": 1701,
      "blow": 1702,
      "mission": 1703,
      "gan": 1704,
      "por": 1705,
      "state": 1706,
      "present": 1707,
      "words": 1708,
      "These": 1709,
      "fell": 1710,
      "ili": 1711,
      "onest": 1712,
      "rather": 1713,
      "works": 1714,
      "kidding": 1715,
      "cap": 1716,
      "ach": 1717,
      "Dam": 1718,
      "ative": 1719,
      "worked": 1720,
      "leaving": 1721,
      "past": 1722,
      "parents": 1723,
      "promise": 1724,
      "Lou": 1725,
      "rect": 1726,
      "mir": 1727,
      "Great": 1728,
      "bye": 1729,
      "oh": 1730,
      "fix": 1731,
      "Our": 1732,
      "ON": 1733,
      "lan": 1734,
      "teach": 1735,
      "vest": 1736,
      "company": 1737,
      "yer": 1738,
      "arch": 1739,
      "imag": 1740,
      "Shit": 1741,
      "stem": 1742,
      "questions": 1743,
      "From": 1744,
      "squ": 1745,
      "vic": 1746,
      "uni": 1747,
      "control": 1748,
      "city": 1749,
      "sometimes": 1750,
      "save": 1751,
      "Doctor": 1752,
      "special": 1753,
      "ens": 1754,
      "personal": 1755,
      "ics": 1756,
      "smo": 1757,
      "itch": 1758,
      "carry": 1759,
      "Even": 1760,
      "fle": 1761,
      "ts": 1762,
      "oud": 1763,
      "inform": 1764,
      "'?": 1765,
      "emp": 1766,
      "ls": 1767,
      "white": 1768,
      "Didn": 1769,
      "ants": 1770,
      "Everything": 1771,
      "lucky": 1772,
      "??": 1773,
      "oper": 1774,
      "interested": 1775,
      "prof": 1776,
      "Max": 1777,
      "wonderful": 1778,
      "mom": 1779,
      "dark": 1780,
      "sus": 1781,
      "offee": 1782,
      "First": 1783,
      "ug": 1784,
      "American": 1785,
      "jor": 1786,
      "ride": 1787,
      "oose": 1788,
      "Isn": 1789,
      "?...": 1790,
      "ense": 1791,
      "hospital": 1792,
      "uts": 1793,
      "OK": 1794,
      "sweet": 1795,
      "view": 1796,
      "fil": 1797,
      "star": 1798,
      "idence": 1799,
      "playing": 1800,
      "begin": 1801,
      "selves": 1802,
      "Gen": 1803,
      "loy": 1804,
      "igh": 1805,
      "respect": 1806,
      "ali": 1807,
      "ip": 1808,
      "poor": 1809,
      "calling": 1810,
      "solutely": 1811,
      "concer": 1812,
      "unk": 1813,
      "ately": 1814,
      "Excuse": 1815,
      "thes": 1816,
      "La": 1817,
      "Rob": 1818,
      "date": 1819,
      "felt": 1820,
      "ol": 1821,
      "roy": 1822,
      "loved": 1823,
      "treat": 1824,
      "field": 1825,
      "phy": 1826,
      "roll": 1827,
      "Big": 1828,
      "cool": 1829,
      "ists": 1830,
      "Mi": 1831,
      "ular": 1832,
      "respon": 1833,
      "Call": 1834,
      "ming": 1835,
      "gas": 1836,
      "sake": 1837,
      "People": 1838,
      "Nick": 1839,
      "hon": 1840,
      "stair": 1841,
      "marry": 1842,
      "bat": 1843,
      "asure": 1844,
      "Those": 1845,
      "sme": 1846,
      "erry": 1847,
      "others": 1848,
      "AT": 1849,
      "invol": 1850,
      "ady": 1851,
      "spend": 1852,
      "Daddy": 1853,
      "doin": 1854,
      "Mc": 1855,
      "giving": 1856,
      "By": 1857,
      "gotten": 1858,
      "sider": 1859,
      "system": 1860,
      "talked": 1861,
      "pur": 1862,
      "Alright": 1863,
      "fre": 1864,
      "grow": 1865,
      "Bud": 1866,
      "Jeff": 1867,
      "outta": 1868,
      "Three": 1869,
      "Comm": 1870,
      "apartment": 1871,
      "THE": 1872,
      "pas": 1873,
      "ances": 1874,
      "cted": 1875,
      "pose": 1876,
      "Mother": 1877,
      "vate": 1878,
      "enter": 1879,
      "plane": 1880,
      "cannot": 1881,
      "consider": 1882,
      "meeting": 1883,
      "turned": 1884,
      "music": 1885,
      "Keep": 1886,
      "seeing": 1887,
      "ground": 1888,
      "lent": 1889,
      "da": 1890,
      "clock": 1891,
      "Bl": 1892,
      "NO": 1893,
      "quit": 1894,
      "Think": 1895,
      "Dav": 1896,
      "eye": 1897,
      "board": 1898,
      "Mart": 1899,
      "nine": 1900,
      "anc": 1901,
      "oub": 1902,
      "worse": 1903,
      "quick": 1904,
      "Ear": 1905,
      "fault": 1906,
      "hotel": 1907,
      "Paul": 1908,
      "mention": 1909,
      "bullshit": 1910,
      "pra": 1911,
      "suit": 1912,
      "simple": 1913,
      "coffee": 1914,
      "lone": 1915,
      "store": 1916,
      "Boy": 1917,
      "Rose": 1918,
      "cket": 1919,
      "arling": 1920,
      "iff": 1921,
      "David": 1922,
      "een": 1923,
      "kin": 1924,
      "uation": 1925,
      "foot": 1926,
      "En": 1927,
      "smart": 1928,
      "vent": 1929,
      "Charlie": 1930,
      "Nice": 1931,
      "tre": 1932,
      "imme": 1933,
      "become": 1934,
      "mal": 1935,
      "att": 1936,
      "worried": 1937,
      "paid": 1938,
      "born": 1939,
      "inv": 1940,
      "stairs": 1941,
      "kick": 1942,
      "feet": 1943,
      "sou": 1944,
      "bast": 1945,
      "handle": 1946,
      "Ti": 1947,
      "Sometimes": 1948,
      "spo": 1949,
      "prot": 1950,
      "tot": 1951,
      "rich": 1952,
      "irth": 1953,
      "Whatever": 1954,
      "Forget": 1955,
      "swear": 1956,
      "colle": 1957,
      "laugh": 1958,
      "Lea": 1959,
      "Anything": 1960,
      "hes": 1961,
      "ided": 1962,
      "allow": 1963,
      "shall": 1964,
      "drop": 1965,
      "window": 1966,
      "unt": 1967,
      "boat": 1968,
      "clothes": 1969,
      "--------": 1970,
      "changed": 1971,
      "hael": 1972,
      "fucked": 1973,
      "Mister": 1974,
      "bucks": 1975,
      "oc": 1976,
      "difference": 1977,
      "Gra": 1978,
      "IT": 1979,
      "cry": 1980,
      "cops": 1981,
      "mistake": 1982,
      "ined": 1983,
      "ety": 1984,
      "given": 1985,
      "wood": 1986,
      "sold": 1987,
      "lax": 1988,
      "pal": 1989,
      "tele": 1990,
      "wake": 1991,
      "Ray": 1992,
      "ford": 1993,
      "vious": 1994,
      "choice": 1995,
      "Ind": 1996,
      "bot": 1997,
      "Michael": 1998,
      "sage": 1999,
      "bag": 2000,
      "une": 2001,
      "caught": 2002,
      "bud": 2003,
      "Remember": 2004,
      "ublic": 2005,
      "az": 2006,
      "reci": 2007,
      "dies": 2008,
      "information": 2009,
      "doub": 2010,
      "meant": 2011,
      "stri": 2012,
      "ander": 2013,
      "strong": 2014,
      "bri": 2015,
      "kept": 2016,
      "fut": 2017,
      "creat": 2018,
      "rent": 2019,
      "noon": 2020,
      "strange": 2021,
      "fully": 2022,
      "Walter": 2023,
      "fish": 2024,
      "rey": 2025,
      "rat": 2026,
      "sal": 2027,
      "deli": 2028,
      "box": 2029,
      "gram": 2030,
      "vir": 2031,
      "eng": 2032,
      "finish": 2033,
      "ina": 2034,
      "protect": 2035,
      "Cor": 2036,
      "cas": 2037,
      "return": 2038,
      "Cause": 2039,
      "bly": 2040,
      "bla": 2041,
      "liked": 2042,
      "middle": 2043,
      "position": 2044,
      "inger": 2045,
      "welve": 2046,
      "Mon": 2047,
      "Dick": 2048,
      "van": 2049,
      "vous": 2050,
      "ends": 2051,
      "Sha": 2052,
      "ror": 2053,
      "LL": 2054,
      "bb": 2055,
      "cat": 2056,
      "list": 2057,
      "using": 2058,
      "cost": 2059,
      "smell": 2060,
      "ER": 2061,
      "Four": 2062,
      "Li": 2063,
      "Sid": 2064,
      "honest": 2065,
      "ker": 2066,
      "ots": 2067,
      "busy": 2068,
      "Ad": 2069,
      "Act": 2070,
      "sun": 2071,
      "ano": 2072,
      "Put": 2073,
      "apo": 2074,
      "responsi": 2075,
      "birth": 2076,
      "drun": 2077,
      "kno": 2078,
      "step": 2079,
      "longer": 2080,
      "hung": 2081,
      "floor": 2082,
      "prison": 2083,
      "TV": 2084,
      "enjoy": 2085,
      "brain": 2086,
      "Mor": 2087,
      "Tr": 2088,
      "short": 2089,
      "jump": 2090,
      "od": 2091,
      "ille": 2092,
      "figured": 2093,
      "sw": 2094,
      "wise": 2095,
      "ized": 2096,
      "sounds": 2097,
      "terrible": 2098,
      "gy": 2099,
      "happening": 2100,
      "Try": 2101,
      "invest": 2102,
      "stead": 2103,
      "Too": 2104,
      "table": 2105,
      "yester": 2106,
      "hasn": 2107,
      "yesterday": 2108,
      "Ha": 2109,
      "pes": 2110,
      "future": 2111,
      "bust": 2112,
      "fit": 2113,
      "hid": 2114,
      "tough": 2115,
      "anywhere": 2116,
      "gentle": 2117,
      "involved": 2118,
      "memor": 2119,
      "illy": 2120,
      "situation": 2121,
      "ee": 2122,
      "Damn": 2123,
      "moving": 2124,
      "Bes": 2125,
      "cab": 2126,
      "fly": 2127,
      "kiss": 2128,
      "slow": 2129,
      "wed": 2130,
      "nin": 2131,
      "ets": 2132,
      "appreci": 2133,
      "Peter": 2134,
      "ible": 2135,
      "broke": 2136,
      "lunch": 2137,
      "Someone": 2138,
      "Make": 2139,
      "Sup": 2140,
      "upset": 2141,
      "Everybody": 2142,
      "dangerous": 2143,
      "ping": 2144,
      "main": 2145,
      "Jimmy": 2146,
      "ME": 2147,
      "zing": 2148,
      "mmer": 2149,
      "Out": 2150,
      "eh": 2151,
      "thor": 2152,
      "burn": 2153,
      "ju": 2154,
      "anim": 2155,
      "cking": 2156,
      "load": 2157,
      "sitting": 2158,
      "problems": 2159,
      "English": 2160,
      "Wor": 2161,
      "killing": 2162,
      "Johnny": 2163,
      "entire": 2164,
      "ino": 2165,
      "trip": 2166,
      "Besides": 2167,
      "careful": 2168,
      "watching": 2169,
      "appro": 2170,
      "19": 2171,
      "eace": 2172,
      "destroy": 2173,
      "radio": 2174,
      "cred": 2175,
      "uff": 2176,
      "def": 2177,
      "base": 2178,
      "miles": 2179,
      "jail": 2180,
      "appear": 2181,
      "War": 2182,
      "yle": 2183,
      "lex": 2184,
      "ically": 2185,
      "ressed": 2186,
      "bow": 2187,
      "public": 2188,
      "tee": 2189,
      "ational": 2190,
      "letter": 2191,
      "realize": 2192,
      "early": 2193,
      "Perhaps": 2194,
      "Father": 2195,
      "ged": 2196,
      "ills": 2197,
      "drunk": 2198,
      "Vi": 2199,
      "ism": 2200,
      "search": 2201,
      "completely": 2202,
      "nothin": 2203,
      "dep": 2204,
      "va": 2205,
      "Jake": 2206,
      "agree": 2207,
      "account": 2208,
      "uring": 2209,
      "needed": 2210,
      "building": 2211,
      "!!!": 2212,
      "vil": 2213,
      "dying": 2214,
      "ulous": 2215,
      "King": 2216,
      "bird": 2217,
      "tie": 2218,
      "Should": 2219,
      "ald": 2220,
      "chick": 2221,
      "discus": 2222,
      "quiet": 2223,
      "ution": 2224,
      "calls": 2225,
      "finished": 2226,
      "certainly": 2227,
      "ST": 2228,
      "card": 2229,
      "ife": 2230,
      "kinda": 2231,
      "private": 2232,
      "vision": 2233,
      "Fo": 2234,
      "mess": 2235,
      "moved": 2236,
      "Scot": 2237,
      "owe": 2238,
      "books": 2239,
      "General": 2240,
      "Sal": 2241,
      "Six": 2242,
      "sat": 2243,
      "trans": 2244,
      "proper": 2245,
      "evening": 2246,
      "reach": 2247,
      "Sen": 2248,
      "ctic": 2249,
      "belong": 2250,
      "Sher": 2251,
      "sud": 2252,
      "Cha": 2253,
      "Mike": 2254,
      "ream": 2255,
      "arrest": 2256,
      "afternoon": 2257,
      "Alex": 2258,
      "Ber": 2259,
      "Eve": 2260,
      "cash": 2261,
      "fill": 2262,
      "iot": 2263,
      "team": 2264,
      "lfriend": 2265,
      "ied": 2266,
      "standing": 2267,
      "More": 2268,
      "interesting": 2269,
      "cir": 2270,
      "reen": 2271,
      "amp": 2272,
      "conta": 2273,
      "killer": 2274,
      "\"\"": 2275,
      "nes": 2276,
      "tes": 2277,
      "pper": 2278,
      "mbers": 2279,
      "sudden": 2280,
      "Hold": 2281,
      "likes": 2282,
      "exc": 2283,
      "spir": 2284,
      "fat": 2285,
      "history": 2286,
      "James": 2287,
      "picked": 2288,
      "Actually": 2289,
      "os": 2290,
      "screw": 2291,
      "doubt": 2292,
      "Pat": 2293,
      "bought": 2294,
      "ey": 2295,
      "ory": 2296,
      "tape": 2297,
      "fear": 2298,
      "conne": 2299,
      "ighbor": 2300,
      "TH": 2301,
      "net": 2302,
      "ines": 2303,
      "om": 2304,
      "unless": 2305,
      "ional": 2306,
      "sport": 2307,
      "imagine": 2308,
      "ky": 2309,
      "temp": 2310,
      "boss": 2311,
      "ilt": 2312,
      "rench": 2313,
      "Rus": 2314,
      "polit": 2315,
      "stopped": 2316,
      "staying": 2317,
      "dance": 2318,
      "tom": 2319,
      "urch": 2320,
      "lived": 2321,
      "forty": 2322,
      "girlfriend": 2323,
      "decided": 2324,
      "Son": 2325,
      "cig": 2326,
      "ges": 2327,
      "weird": 2328,
      "Mer": 2329,
      "ages": 2330,
      "fifteen": 2331,
      "pho": 2332,
      "idge": 2333,
      "nder": 2334,
      "ties": 2335,
      "message": 2336,
      "Eddie": 2337,
      "bout": 2338,
      "flow": 2339,
      "exp": 2340,
      "nervous": 2341,
      "steal": 2342,
      "Anyway": 2343,
      "White": 2344,
      "sli": 2345,
      "aven": 2346,
      "Fred": 2347,
      "Phi": 2348,
      "none": 2349,
      "era": 2350,
      "fol": 2351,
      "appoint": 2352,
      "comput": 2353,
      "ticket": 2354,
      "lawyer": 2355,
      "except": 2356,
      "space": 2357,
      "asshole": 2358,
      "deep": 2359,
      "across": 2360,
      "Su": 2361,
      "sl": 2362,
      "non": 2363,
      "nment": 2364,
      "suck": 2365,
      "action": 2366,
      "accept": 2367,
      "comfort": 2368,
      "San": 2369,
      "threat": 2370,
      "hero": 2371,
      "ended": 2372,
      "loves": 2373,
      "cially": 2374,
      "named": 2375,
      "cup": 2376,
      "hood": 2377,
      "round": 2378,
      "za": 2379,
      "lies": 2380,
      "ural": 2381,
      "visit": 2382,
      "pictures": 2383,
      "appreciate": 2384,
      "station": 2385,
      "ric": 2386,
      "quar": 2387,
      "type": 2388,
      "Five": 2389,
      "ial": 2390,
      "reco": 2391,
      "ffic": 2392,
      "Mac": 2393,
      "dig": 2394,
      "admit": 2395,
      "somethin": 2396,
      "wrote": 2397,
      "jud": 2398,
      "twelve": 2399,
      "truck": 2400,
      "missing": 2401,
      "Christmas": 2402,
      "charge": 2403,
      "Stay": 2404,
      "horse": 2405,
      "Lord": 2406,
      "voice": 2407,
      "Ell": 2408,
      "Sa": 2409,
      "phi": 2410,
      "emb": 2411,
      "excuse": 2412,
      "produ": 2413,
      "CK": 2414,
      "Ted": 2415,
      "sion": 2416,
      "heal": 2417,
      "forgot": 2418,
      "bility": 2419,
      "Last": 2420,
      "pus": 2421,
      "stru": 2422,
      "gold": 2423,
      "ING": 2424,
      "Sch": 2425,
      "weap": 2426,
      "bastard": 2427,
      "cru": 2428,
      "riage": 2429,
      "neighbor": 2430,
      "prove": 2431,
      "missed": 2432,
      "ues": 2433,
      "rain": 2434,
      "hadn": 2435,
      "Ru": 2436,
      "ref": 2437,
      "bomb": 2438,
      "atten": 2439,
      "Louis": 2440,
      "Want": 2441,
      "iam": 2442,
      "deser": 2443,
      "wearing": 2444,
      "ption": 2445,
      "vy": 2446,
      "pos": 2447,
      "court": 2448,
      "join": 2449,
      "peace": 2450,
      "instead": 2451,
      "ened": 2452,
      "Aren": 2453,
      "AR": 2454,
      "perhaps": 2455,
      "driving": 2456,
      "attack": 2457,
      "apolog": 2458,
      "gain": 2459,
      "mot": 2460,
      "tur": 2461,
      "ana": 2462,
      "famili": 2463,
      "bunch": 2464,
      "finite": 2465,
      "listening": 2466,
      "Ken": 2467,
      "OR": 2468,
      "ath": 2469,
      "abo": 2470,
      "aret": 2471,
      "nose": 2472,
      "sug": 2473,
      "Bro": 2474,
      "crime": 2475,
      "hungry": 2476,
      "Russi": 2477,
      "Cou": 2478,
      "dent": 2479,
      "ja": 2480,
      "ache": 2481,
      "finally": 2482,
      "college": 2483,
      "Bea": 2484,
      "Must": 2485,
      "Ser": 2486,
      "obvious": 2487,
      "cow": 2488,
      "putting": 2489,
      "Looks": 2490,
      "ctions": 2491,
      "suggest": 2492,
      "French": 2493,
      "neck": 2494,
      "pop": 2495,
      "reading": 2496,
      "Somebody": 2497,
      "vies": 2498,
      "patient": 2499,
      "hir": 2500,
      "Buddy": 2501,
      "El": 2502,
      "super": 2503,
      "Mad": 2504,
      "ni": 2505,
      "sad": 2506,
      "force": 2507,
      "post": 2508,
      "erman": 2509,
      "ities": 2510,
      "gover": 2511,
      "pleasure": 2512,
      "Once": 2513,
      "attention": 2514,
      "eas": 2515,
      "itor": 2516,
      "ners": 2517,
      "vac": 2518,
      "third": 2519,
      "usual": 2520,
      "commun": 2521,
      "profess": 2522,
      "honor": 2523,
      "Leave": 2524,
      "!?": 2525,
      "Bull": 2526,
      "hide": 2527,
      "fellow": 2528,
      "saved": 2529,
      "print": 2530,
      "Hal": 2531,
      "Sus": 2532,
      "tood": 2533,
      "settle": 2534,
      "Chief": 2535,
      "Lie": 2536,
      "Sat": 2537,
      "iday": 2538,
      "commit": 2539,
      "gives": 2540,
      "joke": 2541,
      "Red": 2542,
      "pet": 2543,
      "avy": 2544,
      "machine": 2545,
      "hardly": 2546,
      "Aw": 2547,
      "Black": 2548,
      "Tru": 2549,
      "har": 2550,
      "col": 2551,
      "America": 2552,
      "totally": 2553,
      "cross": 2554,
      "stuck": 2555,
      "sess": 2556,
      "rage": 2557,
      "ashing": 2558,
      "daddy": 2559,
      "jam": 2560,
      "Most": 2561,
      "gged": 2562,
      "service": 2563,
      "blame": 2564,
      "pan": 2565,
      "program": 2566,
      "dumb": 2567,
      "Still": 2568,
      "block": 2569,
      "ective": 2570,
      "extra": 2571,
      "dia": 2572,
      "condition": 2573,
      "Love": 2574,
      "Rich": 2575,
      "acting": 2576,
      "Exactly": 2577,
      "club": 2578,
      "diffic": 2579,
      "Ni": 2580,
      "wice": 2581,
      "ending": 2582,
      "aged": 2583,
      "orders": 2584,
      "awful": 2585,
      "dreams": 2586,
      "beginning": 2587,
      "army": 2588,
      "talkin": 2589,
      "covered": 2590,
      "vide": 2591,
      "urity": 2592,
      "Everyone": 2593,
      "contact": 2594,
      ">?": 2595,
      "gri": 2596,
      "movies": 2597,
      "hurry": 2598,
      "guns": 2599,
      "experience": 2600,
      "relation": 2601,
      "suspect": 2602,
      "bas": 2603,
      "nur": 2604,
      "sea": 2605,
      "moon": 2606,
      "Before": 2607,
      "pray": 2608,
      "mmm": 2609,
      "William": 2610,
      "papers": 2611,
      "IS": 2612,
      "draw": 2613,
      "Dor": 2614,
      "LE": 2615,
      "ung": 2616,
      "spot": 2617,
      "seconds": 2618,
      "writing": 2619,
      "Sim": 2620,
      "ham": 2621,
      "host": 2622,
      "Probably": 2623,
      "ering": 2624,
      "uten": 2625,
      "partner": 2626,
      "fighting": 2627,
      "nuts": 2628,
      "color": 2629,
      "coun": 2630,
      "pack": 2631,
      "broken": 2632,
      "soul": 2633,
      "rece": 2634,
      "add": 2635,
      "promised": 2636,
      "surprise": 2637,
      "Were": 2638,
      "iled": 2639,
      "andy": 2640,
      "rious": 2641,
      "suc": 2642,
      "walking": 2643,
      "single": 2644,
      "investig": 2645,
      "cook": 2646,
      "asses": 2647,
      "partic": 2648,
      "ridic": 2649,
      "photo": 2650,
      "que": 2651,
      "birthday": 2652,
      "recogn": 2653,
      "darling": 2654,
      "beer": 2655,
      "tight": 2656,
      "marriage": 2657,
      "security": 2658,
      "Wow": 2659,
      "pis": 2660,
      "usually": 2661,
      "cast": 2662,
      "ured": 2663,
      "icide": 2664,
      "scri": 2665,
      "earth": 2666,
      "GO": 2667,
      "Sounds": 2668,
      "Ten": 2669,
      "asleep": 2670,
      "ext": 2671,
      "exam": 2672,
      "agent": 2673,
      "tract": 2674,
      "evidence": 2675,
      "Paris": 2676,
      "silly": 2677,
      "absolutely": 2678,
      "soci": 2679,
      "Major": 2680,
      "share": 2681,
      "hook": 2682,
      "rup": 2683,
      "idiot": 2684,
      "uty": 2685,
      "chi": 2686,
      "finger": 2687,
      "exi": 2688,
      "plans": 2689,
      "divor": 2690,
      "Billy": 2691,
      "normal": 2692,
      "Cour": 2693,
      "rope": 2694,
      "notice": 2695,
      "phys": 2696,
      "gin": 2697,
      "song": 2698,
      "lyn": 2699,
      "ief": 2700,
      "wondering": 2701,
      "crimin": 2702,
      "psycho": 2703,
      "utenant": 2704,
      "fra": 2705,
      "necess": 2706,
      ">...": 2707,
      "Cle": 2708,
      "Twenty": 2709,
      "Thir": 2710,
      "film": 2711,
      "Dep": 2712,
      "pot": 2713,
      "inno": 2714,
      "boyfriend": 2715,
      "folks": 2716,
      "fan": 2717,
      "umb": 2718,
      "ors": 2719,
      "address": 2720,
      "los": 2721,
      "event": 2722,
      "fied": 2723,
      "decis": 2724,
      "Doesn": 2725,
      "wedding": 2726,
      "ridiculous": 2727,
      "gif": 2728,
      "forgive": 2729,
      "pres": 2730,
      "dire": 2731,
      "drugs": 2732,
      "BI": 2733,
      "Since": 2734,
      "fur": 2735,
      "fired": 2736,
      "finitely": 2737,
      "ki": 2738,
      "ature": 2739,
      "ency": 2740,
      "ific": 2741,
      "evil": 2742,
      "memory": 2743,
      "computer": 2744,
      "City": 2745,
      "ron": 2746,
      "West": 2747,
      "plenty": 2748,
      "spent": 2749,
      "experi": 2750,
      "ourselves": 2751,
      "dump": 2752,
      "Back": 2753,
      "Watch": 2754,
      "dick": 2755,
      "swi": 2756,
      "wat": 2757,
      "lied": 2758,
      "blue": 2759,
      "Star": 2760,
      "cute": 2761,
      "dollar": 2762,
      "surprised": 2763,
      "Fe": 2764,
      "Fed": 2765,
      "Honey": 2766,
      "ica": 2767,
      "kit": 2768,
      "relax": 2769,
      "Help": 2770,
      "ease": 2771,
      "closed": 2772,
      "Grand": 2773,
      "ination": 2774,
      "organ": 2775,
      "wild": 2776,
      "rough": 2777,
      "tw": 2778,
      "onto": 2779,
      "reed": 2780,
      "Gee": 2781,
      "Has": 2782,
      "Lit": 2783,
      "Mexi": 2784,
      "Pri": 2785,
      "Up": 2786,
      "ston": 2787,
      "level": 2788,
      "aly": 2789,
      "rock": 2790,
      "tim": 2791,
      "guard": 2792,
      "tells": 2793,
      "names": 2794,
      "Better": 2795,
      "client": 2796,
      "Ly": 2797,
      "hall": 2798,
      "keeps": 2799,
      "Ever": 2800,
      "ech": 2801,
      "fright": 2802,
      "zen": 2803,
      "ify": 2804,
      "percent": 2805,
      "throom": 2806,
      "starting": 2807,
      "lonel": 2808,
      "Sit": 2809,
      "mper": 2810,
      "mile": 2811,
      "nia": 2812,
      "rate": 2813,
      "esca": 2814,
      "grou": 2815,
      "gency": 2816,
      "cigaret": 2817,
      "Jerry": 2818,
      "Over": 2819,
      "Rick": 2820,
      "note": 2821,
      "impossible": 2822,
      "gener": 2823,
      "buddy": 2824,
      "twice": 2825,
      "tran": 2826,
      "pair": 2827,
      "Charles": 2828,
      "records": 2829,
      "difficult": 2830,
      "Cong": 2831,
      "Fif": 2832,
      "Pl": 2833,
      "Vic": 2834,
      "pu": 2835,
      "lots": 2836,
      "crap": 2837,
      "Tra": 2838,
      "guest": 2839,
      "officer": 2840,
      "feed": 2841,
      "file": 2842,
      "Chris": 2843,
      "Earth": 2844,
      "government": 2845,
      "cing": 2846,
      "gal": 2847,
      "nal": 2848,
      "angry": 2849,
      "witch": 2850,
      "whether": 2851,
      "Fin": 2852,
      "unders": 2853,
      "forever": 2854,
      "Leon": 2855,
      "flat": 2856,
      "Kill": 2857,
      "fant": 2858,
      "lli": 2859,
      "feelings": 2860,
      "Ain": 2861,
      "Min": 2862,
      "anne": 2863,
      "advice": 2864,
      "herself": 2865,
      "iced": 2866,
      "bathroom": 2867,
      "reak": 2868,
      "glass": 2869,
      "smoke": 2870,
      "ility": 2871,
      "adv": 2872,
      "ils": 2873,
      "iling": 2874,
      "rules": 2875,
      "mith": 2876,
      "correct": 2877,
      "Carl": 2878,
      "Ac": 2879,
      "pin": 2880,
      "ero": 2881,
      "enny": 2882,
      "mark": 2883,
      "Ve": 2884,
      "Ya": 2885,
      "knock": 2886,
      "particular": 2887,
      "Cal": 2888,
      "Dude": 2889,
      "dun": 2890,
      "ga": 2891,
      "iel": 2892,
      "sco": 2893,
      "velo": 2894,
      "summer": 2895,
      "study": 2896,
      "Bobby": 2897,
      "practic": 2898,
      "Mur": 2899,
      "reck": 2900,
      "Believe": 2901,
      "direct": 2902,
      "Uncle": 2903,
      "locked": 2904,
      "Bru": 2905,
      "aper": 2906,
      "fir": 2907,
      "ile": 2908,
      "loose": 2909,
      "...!": 2910,
      "often": 2911,
      "author": 2912,
      "chair": 2913,
      "natural": 2914,
      "ID": 2915,
      "Talk": 2916,
      "split": 2917,
      "shop": 2918,
      "Roy": 2919,
      "pulled": 2920,
      "innocent": 2921,
      "Hen": 2922,
      "kn": 2923,
      "seemed": 2924,
      "logy": 2925,
      "comfortable": 2926,
      "Lieutenant": 2927,
      "Du": 2928,
      "fucker": 2929,
      "planet": 2930,
      "walked": 2931,
      "trick": 2932,
      "lines": 2933,
      "Tommy": 2934,
      "Betty": 2935,
      "regu": 2936,
      "remind": 2937,
      "arri": 2938,
      "bey": 2939,
      "bell": 2940,
      "tax": 2941,
      "stole": 2942,
      "built": 2943,
      "keys": 2944,
      "learned": 2945,
      "odd": 2946,
      "relationship": 2947,
      "Det": 2948,
      "Eight": 2949,
      "Hard": 2950,
      "Mama": 2951,
      "whis": 2952,
      "mend": 2953,
      "island": 2954,
      "ager": 2955,
      "scare": 2956,
      "holding": 2957,
      "Guess": 2958,
      "Little": 2959,
      "Yah": 2960,
      "sna": 2961,
      "sta": 2962,
      "prep": 2963,
      "contin": 2964,
      "FBI": 2965,
      "Won": 2966,
      "ume": 2967,
      "stories": 2968,
      "feels": 2969,
      "suff": 2970,
      "Absolutely": 2971,
      "Del": 2972,
      "Lon": 2973,
      "egg": 2974,
      "pic": 2975,
      "grab": 2976,
      "Com": 2977,
      "Pret": 2978,
      "TO": 2979,
      "ka": 2980,
      "sof": 2981,
      "willing": 2982,
      "Goodbye": 2983,
      "Long": 2984,
      "Um": 2985,
      "VE": 2986,
      "bal": 2987,
      "places": 2988,
      "played": 2989,
      "sleeping": 2990,
      "skin": 2991,
      "Time": 2992,
      "embarr": 2993,
      "jest": 2994,
      "ata": 2995,
      "iting": 2996,
      "itude": 2997,
      "blind": 2998,
      "price": 2999,
      "weak": 3000,
      "Tomorrow": 3001,
      "ordin": 3002,
      "Cr": 3003,
      "push": 3004,
      "ooper": 3005,
      "---": 3006,
      "depart": 3007,
      "simp": 3008,
      "welcome": 3009,
      "teeth": 3010,
      "30": 3011,
      "Er": 3012,
      "qual": 3013,
      "proof": 3014,
      "waste": 3015,
      "proud": 3016,
      "keeping": 3017,
      "opin": 3018,
      "Always": 3019,
      "charac": 3020,
      "elect": 3021,
      "witness": 3022,
      "responsible": 3023,
      "Sheriff": 3024,
      "Bri": 3025,
      "SE": 3026,
      "Ver": 3027,
      "cla": 3028,
      "taste": 3029,
      "acti": 3030,
      "scene": 3031,
      "Holly": 3032,
      "credit": 3033,
      "Bur": 3034,
      "Cali": 3035,
      "thro": 3036,
      "major": 3037,
      "command": 3038,
      ">!": 3039,
      "Tri": 3040,
      "fla": 3041,
      "ging": 3042,
      "sle": 3043,
      "rible": 3044,
      "cher": 3045,
      "Doc": 3046,
      "mix": 3047,
      "Except": 3048,
      "fortun": 3049,
      "risk": 3050,
      "Califor": 3051,
      "Ok": 3052,
      "Washing": 3053,
      "crew": 3054,
      "tree": 3055,
      "worst": 3056,
      "stock": 3057,
      "Cra": 3058,
      "Gor": 3059,
      "Old": 3060,
      "ral": 3061,
      "tho": 3062,
      "hip": 3063,
      "tech": 3064,
      "convers": 3065,
      "High": 3066,
      "Bullshit": 3067,
      "Washington": 3068,
      "Ter": 3069,
      "Van": 3070,
      "WH": 3071,
      "double": 3072,
      "dirty": 3073,
      "sight": 3074,
      "ids": 3075,
      "area": 3076,
      "gettin": 3077,
      "pocket": 3078,
      "Ask": 3079,
      "nature": 3080,
      "concerned": 3081,
      "contract": 3082,
      "paying": 3083,
      "breakfast": 3084,
      "hey": 3085,
      "church": 3086,
      "neither": 3087,
      "within": 3088,
      "nother": 3089,
      "urs": 3090,
      "corner": 3091,
      "games": 3092,
      "deliver": 3093,
      "California": 3094,
      "Turn": 3095,
      "Under": 3096,
      "during": 3097,
      "fas": 3098,
      "code": 3099,
      "ilk": 3100,
      "dunno": 3101,
      "ben": 3102,
      "chen": 3103,
      "erk": 3104,
      "anti": 3105,
      "ada": 3106,
      "Colonel": 3107,
      "showed": 3108,
      "None": 3109,
      "ban": 3110,
      "pool": 3111,
      "Andy": 3112,
      "arden": 3113,
      "expen": 3114,
      "Martin": 3115,
      "Senator": 3116,
      "Next": 3117,
      "opp": 3118,
      "identi": 3119,
      "wash": 3120,
      "unny": 3121,
      "consc": 3122,
      "weekend": 3123,
      "Daniel": 3124,
      "apologize": 3125,
      "MM": 3126,
      "crow": 3127,
      "uc": 3128,
      "vive": 3129,
      "intell": 3130,
      "theart": 3131,
      "forward": 3132,
      "loc": 3133,
      "common": 3134,
      "lovely": 3135,
      "ngth": 3136,
      "balls": 3137,
      "ski": 3138,
      "calm": 3139,
      "Bruce": 3140,
      "AA": 3141,
      "Rome": 3142,
      "zed": 3143,
      "pig": 3144,
      "stor": 3145,
      "nights": 3146,
      "drinking": 3147,
      "amazing": 3148,
      "subject": 3149,
      "bottle": 3150,
      "Henry": 3151,
      "Eu": 3152,
      "alous": 3153,
      "verse": 3154,
      "male": 3155,
      "track": 3156,
      "Street": 3157,
      "famous": 3158,
      "eating": 3159,
      "Jeffrey": 3160,
      "success": 3161,
      "!...": 3162,
      "Had": 3163,
      "Nah": 3164,
      "etheart": 3165,
      "pun": 3166,
      "rout": 3167,
      "tar": 3168,
      "attra": 3169,
      "insane": 3170,
      "Comp": 3171,
      "discuss": 3172,
      "jesty": 3173,
      "Another": 3174,
      "Smith": 3175,
      "Whe": 3176,
      "bill": 3177,
      "due": 3178,
      "sla": 3179,
      "atic": 3180,
      "oop": 3181,
      "knowing": 3182,
      "upstairs": 3183,
      "taught": 3184,
      "actor": 3185,
      "auto": 3186,
      "gging": 3187,
      "training": 3188,
      "aa": 3189,
      "stone": 3190,
      "arms": 3191,
      "Nope": 3192,
      "inda": 3193,
      "ortun": 3194,
      "heads": 3195,
      "writer": 3196,
      "Pretty": 3197,
      "Mag": 3198,
      "lab": 3199,
      "sand": 3200,
      "istic": 3201,
      "cock": 3202,
      "master": 3203,
      "acqu": 3204,
      "Goddamn": 3205,
      "dropped": 3206,
      "decide": 3207,
      "favorite": 3208,
      "empty": 3209,
      "----------------": 3210,
      "shoes": 3211,
      "trial": 3212,
      "lights": 3213,
      "hanging": 3214,
      "drug": 3215,
      "Sho": 3216,
      "aster": 3217,
      "bon": 3218,
      "mama": 3219,
      "ram": 3220,
      "ury": 3221,
      "alley": 3222,
      "weight": 3223,
      "noticed": 3224,
      "atest": 3225,
      "career": 3226,
      "impress": 3227,
      "lately": 3228,
      "murdered": 3229,
      "group": 3230,
      "Far": 3231,
      "Other": 3232,
      "Sar": 3233,
      "Show": 3234,
      "cars": 3235,
      "ost": 3236,
      "sche": 3237,
      "thetic": 3238,
      "ises": 3239,
      "aring": 3240,
      "spaper": 3241,
      "cheap": 3242,
      "size": 3243,
      "State": 3244,
      "serve": 3245,
      "wards": 3246,
      "Bye": 3247,
      "Jan": 3248,
      "Park": 3249,
      "ences": 3250,
      "bridge": 3251,
      "crack": 3252,
      "enemy": 3253,
      "tu": 3254,
      "heavy": 3255,
      "posed": 3256,
      "Lee": 3257,
      "curious": 3258,
      "detail": 3259,
      "fresh": 3260,
      "Marty": 3261,
      "Cas": 3262,
      "Hur": 3263,
      "Nu": 3264,
      "mare": 3265,
      "oned": 3266,
      "heaven": 3267,
      "del": 3268,
      "grad": 3269,
      "emer": 3270,
      "vio": 3271,
      "South": 3272,
      "wers": 3273,
      "yn": 3274,
      "seat": 3275,
      "arry": 3276,
      "travel": 3277,
      "runs": 3278,
      "flu": 3279,
      "Grace": 3280,
      "Admir": 3281,
      "Agent": 3282,
      "Same": 3283,
      "ari": 3284,
      "emot": 3285,
      "000": 3286,
      "immedi": 3287,
      "hiding": 3288,
      "Richard": 3289,
      "decision": 3290,
      "gift": 3291,
      "11": 3292,
      "House": 3293,
      "cro": 3294,
      "harm": 3295,
      "losing": 3296,
      "urance": 3297,
      "afford": 3298,
      "loyd": 3299,
      "animal": 3300,
      "Bab": 3301,
      "Find": 3302,
      "Seven": 3303,
      "pil": 3304,
      "belie": 3305,
      "rick": 3306,
      "rob": 3307,
      "intro": 3308,
      "helped": 3309,
      "breath": 3310,
      "turns": 3311,
      "brothers": 3312,
      "Wouldn": 3313,
      "judge": 3314,
      "necessary": 3315,
      "Admiral": 3316,
      "Que": 3317,
      "boo": 3318,
      "gro": 3319,
      "ours": 3320,
      "fail": 3321,
      "newspaper": 3322,
      "Stan": 3323,
      "possibly": 3324,
      "department": 3325,
      "simply": 3326,
      "Cla": 3327,
      "ok": 3328,
      "sie": 3329,
      "ann": 3330,
      "ato": 3331,
      "itself": 3332,
      "hired": 3333,
      "raise": 3334,
      "ledge": 3335,
      "following": 3336,
      "circ": 3337,
      "Satur": 3338,
      "character": 3339,
      "EN": 3340,
      "Spe": 3341,
      "ray": 3342,
      "ining": 3343,
      "wire": 3344,
      "laid": 3345,
      "Soon": 3346,
      "erson": 3347,
      "Ann": 3348,
      "survive": 3349,
      "beach": 3350,
      "champ": 3351,
      "Holy": 3352,
      "Robert": 3353,
      "satis": 3354,
      "Brother": 3355,
      "opinion": 3356,
      "sn": 3357,
      "incl": 3358,
      "lls": 3359,
      "seriously": 3360,
      "concern": 3361,
      "television": 3362,
      "Dave": 3363,
      "duty": 3364,
      "eld": 3365,
      "wine": 3366,
      "river": 3367,
      "ures": 3368,
      "prefer": 3369,
      "Things": 3370,
      "warm": 3371,
      "sexual": 3372,
      "sides": 3373,
      "Juli": 3374,
      "Miles": 3375,
      "suddenly": 3376,
      "explo": 3377,
      "Green": 3378,
      "Way": 3379,
      "dry": 3380,
      "piss": 3381,
      "sive": 3382,
      "ville": 3383,
      "ount": 3384,
      "support": 3385,
      "complic": 3386,
      "desk": 3387,
      "farm": 3388,
      "nurse": 3389,
      "Aye": 3390,
      "DO": 3391,
      "eaking": 3392,
      "ideas": 3393,
      "starts": 3394,
      "Thomas": 3395,
      "Guy": 3396,
      "unior": 3397,
      "Saturday": 3398,
      "jour": 3399,
      "legs": 3400,
      "ilty": 3401,
      "comin": 3402,
      "scream": 3403,
      "Army": 3404,
      "large": 3405,
      "lonely": 3406,
      "vacation": 3407,
      "conversation": 3408,
      "cous": 3409,
      "holes": 3410,
      "talent": 3411,
      "rap": 3412,
      "Prof": 3413,
      "greatest": 3414,
      "passed": 3415,
      "beyond": 3416,
      "introdu": 3417,
      "10": 3418,
      "Bad": 3419,
      "Pop": 3420,
      "ears": 3421,
      "fli": 3422,
      "yard": 3423,
      "held": 3424,
      "liar": 3425,
      "usion": 3426,
      "bodies": 3427,
      "hearing": 3428,
      "Friday": 3429,
      "checked": 3430,
      "familiar": 3431,
      "Cu": 3432,
      "DA": 3433,
      "Sy": 3434,
      "Sund": 3435,
      "pants": 3436,
      "eds": 3437,
      "ives": 3438,
      "assign": 3439,
      "Jew": 3440,
      "copy": 3441,
      "Blue": 3442,
      "tea": 3443,
      "ugg": 3444,
      "sty": 3445,
      "stars": 3446,
      "definitely": 3447,
      "mail": 3448,
      "letters": 3449,
      "rub": 3450,
      "hello": 3451,
      "Doro": 3452,
      "London": 3453,
      "trad": 3454,
      "wast": 3455,
      "compla": 3456,
      "stein": 3457,
      "wheel": 3458,
      "langu": 3459,
      "'...": 3460,
      "Cer": 3461,
      "Ton": 3462,
      "pounds": 3463,
      "comb": 3464,
      "bath": 3465,
      "lookin": 3466,
      "Haven": 3467,
      "Brit": 3468,
      "interview": 3469,
      "instru": 3470,
      "FU": 3471,
      "Lloyd": 3472,
      "iv": 3473,
      "ium": 3474,
      "nic": 3475,
      "sin": 3476,
      "ghost": 3477,
      "lift": 3478,
      "bigger": 3479,
      "matters": 3480,
      "desert": 3481,
      "jealous": 3482,
      "Den": 3483,
      "Know": 3484,
      "Lau": 3485,
      "ded": 3486,
      "stit": 3487,
      "hoping": 3488,
      "tern": 3489,
      "torney": 3490,
      "spoke": 3491,
      "further": 3492,
      "Sunday": 3493,
      "Da": 3494,
      "Day": 3495,
      "Ele": 3496,
      "Jason": 3497,
      "whose": 3498,
      "ctice": 3499,
      "shooting": 3500,
      "deserve": 3501,
      "Vegas": 3502,
      "Dorothy": 3503,
      "Ga": 3504,
      "SH": 3505,
      "irt": 3506,
      "dem": 3507,
      "exist": 3508,
      "themselves": 3509,
      "plant": 3510,
      "spec": 3511,
      "speed": 3512,
      "bringing": 3513,
      "Mexico": 3514,
      "opportun": 3515,
      "Hor": 3516,
      "Mill": 3517,
      "heat": 3518,
      "roman": 3519,
      "ability": 3520,
      "tail": 3521,
      "acket": 3522,
      "assist": 3523,
      "nightmare": 3524,
      "cares": 3525,
      "Franc": 3526,
      "green": 3527,
      "birds": 3528,
      "regular": 3529,
      "Aust": 3530,
      "sor": 3531,
      "wis": 3532,
      "": 3533,
      "seve": 3534,
      "guilty": 3535,
      "Majesty": 3536,
      "fy": 3537,
      "vili": 3538,
      "numbers": 3539,
      "Brad": 3540,
      "purpose": 3541,
      "Trust": 3542,
      "kitchen": 3543,
      "ET": 3544,
      "flight": 3545,
      "gress": 3546,
      "lier": 3547,
      "somehow": 3548,
      "geant": 3549,
      "suicide": 3550,
      "answers": 3551,
      "medical": 3552,
      "Harold": 3553,
      "perfectly": 3554,
      "recognize": 3555,
      "seventy": 3556,
      "Kar": 3557,
      "Law": 3558,
      "Ra": 3559,
      "insurance": 3560,
      "student": 3561,
      "elly": 3562,
      "logical": 3563,
      "bert": 3564,
      "Buzz": 3565,
      "ius": 3566,
      "ered": 3567,
      "older": 3568,
      "shows": 3569,
      "sixty": 3570,
      "magic": 3571,
      "confess": 3572,
      "Norman": 3573,
      "England": 3574,
      "camera": 3575,
      "Check": 3576,
      "German": 3577,
      "ians": 3578,
      "kne": 3579,
      "wha": 3580,
      "coat": 3581,
      "pregn": 3582,
      "magaz": 3583,
      "battle": 3584,
      "Scott": 3585,
      "ED": 3586,
      "Spo": 3587,
      "cards": 3588,
      "faith": 3589,
      "disappear": 3590,
      "park": 3591,
      "pardon": 3592,
      "aware": 3593,
      "doors": 3594,
      "appeared": 3595,
      "arrange": 3596,
      "Cut": 3597,
      "Na": 3598,
      "bite": 3599,
      "nig": 3600,
      "ener": 3601,
      "bear": 3602,
      "stayed": 3603,
      "sweetheart": 3604,
      "horrible": 3605,
      "fella": 3606,
      "gentleman": 3607,
      "session": 3608,
      "escape": 3609,
      "Baby": 3610,
      "50": 3611,
      "Hall": 3612,
      "Yep": 3613,
      "wound": 3614,
      "request": 3615,
      "itche": 3616,
      "sees": 3617,
      "tip": 3618,
      "believed": 3619,
      "supp": 3620,
      "Dead": 3621,
      "borrow": 3622,
      "spirit": 3623,
      "criminal": 3624,
      "Hon": 3625,
      "Life": 3626,
      "rot": 3627,
      "ration": 3628,
      "sne": 3629,
      "repe": 3630,
      "weather": 3631,
      "hire": 3632,
      "cious": 3633,
      "brains": 3634,
      "excited": 3635,
      "Mmm": 3636,
      "Ry": 3637,
      "cord": 3638,
      "reli": 3639,
      "represent": 3640,
      "rength": 3641,
      "itz": 3642,
      "urally": 3643,
      "cts": 3644,
      "ulations": 3645,
      "blew": 3646,
      "issue": 3647,
      "market": 3648,
      "property": 3649,
      "Thirty": 3650,
      "Death": 3651,
      "Gover": 3652,
      "dressed": 3653,
      "garden": 3654,
      "orig": 3655,
      "develo": 3656,
      "goodbye": 3657,
      "tray": 3658,
      "rule": 3659,
      "ester": 3660,
      "monster": 3661,
      "graph": 3662,
      "carrying": 3663,
      "Fa": 3664,
      "Mm": 3665,
      "tis": 3666,
      "laine": 3667,
      "Shhh": 3668,
      "Anna": 3669,
      "Unless": 3670,
      "distur": 3671,
      "teacher": 3672,
      "Susan": 3673,
      "Clau": 3674,
      "Yo": 3675,
      "awhile": 3676,
      "equi": 3677,
      "moun": 3678,
      "prin": 3679,
      "reasons": 3680,
      "effect": 3681,
      "written": 3682,
      "ancing": 3683,
      "Certain": 3684,
      "Tonight": 3685,
      "origin": 3686,
      "lon": 3687,
      "mic": 3688,
      "ples": 3689,
      "conven": 3690,
      "disappoint": 3691,
      "speech": 3692,
      "airport": 3693,
      "Until": 3694,
      "followed": 3695,
      "detective": 3696,
      "pressure": 3697,
      "lence": 3698,
      "allowed": 3699,
      "Russian": 3700,
      "knife": 3701,
      "soft": 3702,
      "FUCK": 3703,
      "Eli": 3704,
      "Lam": 3705,
      "eper": 3706,
      "sword": 3707,
      "tit": 3708,
      "became": 3709,
      "leaves": 3710,
      "license": 3711,
      "cellent": 3712,
      "weapons": 3713,
      "Jane": 3714,
      "Kay": 3715,
      "OO": 3716,
      "ez": 3717,
      "gam": 3718,
      "sey": 3719,
      "sever": 3720,
      "dogs": 3721,
      "poison": 3722,
      "meaning": 3723,
      "aff": 3724,
      "mental": 3725,
      "match": 3726,
      "descri": 3727,
      "eleven": 3728,
      "camp": 3729,
      "watched": 3730,
      "Gordon": 3731,
      "emergency": 3732,
      "Di": 3733,
      "Hmm": 3734,
      "rt": 3735,
      "threw": 3736,
      "strength": 3737,
      "espe": 3738,
      "anta": 3739,
      "ified": 3740,
      "civili": 3741,
      "Ange": 3742,
      "driver": 3743,
      "incred": 3744,
      "practice": 3745,
      "Indian": 3746,
      "gentlemen": 3747,
      "Europe": 3748,
      "Francis": 3749,
      "especially": 3750,
      "20": 3751,
      "Adam": 3752,
      "Hot": 3753,
      "Sw": 3754,
      "fu": 3755,
      "fed": 3756,
      "tori": 3757,
      "inten": 3758,
      "Annie": 3759,
      "Bring": 3760,
      "sky": 3761,
      "arently": 3762,
      "Luke": 3763,
      "immediately": 3764,
      "AS": 3765,
      "Jud": 3766,
      "Naw": 3767,
      "meat": 3768,
      "itiz": 3769,
      "affair": 3770,
      "drove": 3771,
      "Joey": 3772,
      "ugly": 3773,
      "animals": 3774,
      "Profess": 3775,
      "Dun": 3776,
      "Home": 3777,
      "Happ": 3778,
      "Ob": 3779,
      "Tex": 3780,
      "avo": 3781,
      "bs": 3782,
      "bright": 3783,
      "mood": 3784,
      "inde": 3785,
      "theory": 3786,
      "nowhere": 3787,
      "cker": 3788,
      "ceed": 3789,
      "neg": 3790,
      "nel": 3791,
      "shark": 3792,
      "ices": 3793,
      "anks": 3794,
      "personally": 3795,
      "professional": 3796,
      "Dis": 3797,
      "loud": 3798,
      "pup": 3799,
      "tery": 3800,
      "romise": 3801,
      "tions": 3802,
      "helping": 3803,
      "Relax": 3804,
      "closer": 3805,
      "design": 3806,
      "sooner": 3807,
      "pieces": 3808,
      "chicken": 3809,
      "easier": 3810,
      "claim": 3811,
      "Hollywood": 3812,
      "ese": 3813,
      "choose": 3814,
      "sometime": 3815,
      "ference": 3816,
      "expecting": 3817,
      "expected": 3818,
      "cousin": 3819,
      "Gimme": 3820,
      "Str": 3821,
      "ado": 3822,
      "race": 3823,
      "cies": 3824,
      "damned": 3825,
      "planning": 3826,
      "script": 3827,
      "LA": 3828,
      "bare": 3829,
      "thou": 3830,
      "iny": 3831,
      "ante": 3832,
      "litary": 3833,
      "chest": 3834,
      "operation": 3835,
      "mentioned": 3836,
      "obviously": 3837,
      "Nat": 3838,
      "rab": 3839,
      "tour": 3840,
      "rep": 3841,
      ".....": 3842,
      "ida": 3843,
      "quot": 3844,
      "assume": 3845,
      "shower": 3846,
      "opened": 3847,
      "beauty": 3848,
      "crying": 3849,
      "above": 3850,
      "pissed": 3851,
      "understood": 3852,
      "language": 3853,
      "CH": 3854,
      "mut": 3855,
      "sour": 3856,
      "asant": 3857,
      "lif": 3858,
      "likely": 3859,
      "uncle": 3860,
      "local": 3861,
      "extre": 3862,
      "Thurs": 3863,
      "compet": 3864,
      "throat": 3865,
      "opportunity": 3866,
      ".]": 3867,
      "18": 3868,
      "?'": 3869,
      "Des": 3870,
      "gang": 3871,
      "poli": 3872,
      "uses": 3873,
      "breaking": 3874,
      "fortune": 3875,
      "Pete": 3876,
      "busted": 3877,
      "depend": 3878,
      "communic": 3879,
      "divorce": 3880,
      ".?": 3881,
      "App": 3882,
      "LI": 3883,
      "stat": 3884,
      "argu": 3885,
      "sales": 3886,
      "access": 3887,
      "Benjam": 3888,
      "leads": 3889,
      "weapon": 3890,
      "intellig": 3891,
      "energy": 3892,
      "Elaine": 3893,
      "Hild": 3894,
      "Jon": 3895,
      "Wood": 3896,
      "fro": 3897,
      "hum": 3898,
      "ening": 3899,
      "buried": 3900,
      "Been": 3901,
      "biggest": 3902,
      "States": 3903,
      "Leo": 3904,
      "Baron": 3905,
      "legal": 3906,
      "mirac": 3907,
      "neighborhood": 3908,
      "embarrass": 3909,
      "Certainly": 3910,
      "Jose": 3911,
      "Larry": 3912,
      "bid": 3913,
      "ime": 3914,
      "mate": 3915,
      "phe": 3916,
      "separ": 3917,
      "Theo": 3918,
      "Wel": 3919,
      "upon": 3920,
      "lities": 3921,
      "trade": 3922,
      "bum": 3923,
      "ems": 3924,
      "truly": 3925,
      "eighteen": 3926,
      "doctors": 3927,
      "bottom": 3928,
      "prepared": 3929,
      "Hit": 3930,
      "Lis": 3931,
      "Mitche": 3932,
      "Nin": 3933,
      "oil": 3934,
      "pow": 3935,
      "iner": 3936,
      "lling": 3937,
      "hated": 3938,
      "ucky": 3939,
      "perfor": 3940,
      "commend": 3941,
      "files": 3942,
      "Mark": 3943,
      "grave": 3944,
      "flowers": 3945,
      "Part": 3946,
      "Run": 3947,
      "Swe": 3948,
      "Ty": 3949,
      "Wil": 3950,
      "style": 3951,
      "asing": 3952,
      "rie": 3953,
      "Their": 3954,
      "prise": 3955,
      "craw": 3956,
      "Poor": 3957,
      "AND": 3958,
      "Danny": 3959,
      "occur": 3960,
      "World": 3961,
      "Ryan": 3962,
      "Benjamin": 3963,
      "Gi": 3964,
      "Jen": 3965,
      "ecut": 3966,
      "jacket": 3967,
      "vill": 3968,
      "vation": 3969,
      "social": 3970,
      "kills": 3971,
      "Beat": 3972,
      "dio": 3973,
      "anged": 3974,
      "trap": 3975,
      "Johnson": 3976,
      "boring": 3977,
      "Mean": 3978,
      "symp": 3979,
      "crash": 3980,
      "British": 3981,
      "Mitchell": 3982,
      "Pal": 3983,
      "ashed": 3984,
      "chief": 3985,
      "manager": 3986,
      "butt": 3987,
      "bage": 3988,
      "gues": 3989,
      "whom": 3990,
      "everywhere": 3991,
      "tryin": 3992,
      "signal": 3993,
      "jury": 3994,
      "storm": 3995,
      "Professor": 3996,
      "extreme": 3997,
      "Mel": 3998,
      "Rache": 3999,
      "cele": 4000,
      "guar": 4001,
      "ender": 4002,
      "Real": 4003,
      "damage": 4004,
      "joint": 4005,
      "shape": 4006,
      "total": 4007,
      "brief": 4008,
      "Shall": 4009,
      "responsibility": 4010,
      "turning": 4011,
      "Course": 4012,
      "frightened": 4013,
      "DE": 4014,
      "Easy": 4015,
      "Wr": 4016,
      "cin": 4017,
      "gie": 4018,
      "gate": 4019,
      "hoo": 4020,
      "nut": 4021,
      "pir": 4022,
      "zo": 4023,
      "lle": 4024,
      "havi": 4025,
      "forgotten": 4026,
      "ruin": 4027,
      "Goodnight": 4028,
      "Without": 4029,
      "streets": 4030,
      "Monday": 4031,
      "lliant": 4032,
      "Junior": 4033,
      "Tay": 4034,
      "aur": 4035,
      "recent": 4036,
      "sters": 4037,
      "ider": 4038,
      "alian": 4039,
      "ami": 4040,
      "amount": 4041,
      "pretend": 4042,
      "square": 4043,
      "Commander": 4044,
      "ratulations": 4045,
      "jack": 4046,
      "pregnant": 4047,
      "celebr": 4048,
      "Taylor": 4049,
      "12": 4050,
      "Vir": 4051,
      "yo": 4052,
      "hol": 4053,
      "tapes": 4054,
      "understanding": 4055,
      "player": 4056,
      "rooms": 4057,
      "collect": 4058,
      "quickly": 4059,
      "engine": 4060,
      "Spock": 4061,
      "Cent": 4062,
      "UN": 4063,
      "lord": 4064,
      "snow": 4065,
      "habit": 4066,
      "stomach": 4067,
      "chem": 4068,
      "Chica": 4069,
      "Mickey": 4070,
      "invited": 4071,
      "Half": 4072,
      "slept": 4073,
      "Gir": 4074,
      "Ko": 4075,
      "Ow": 4076,
      "Sm": 4077,
      "gers": 4078,
      "ising": 4079,
      "tire": 4080,
      "among": 4081,
      "sitive": 4082,
      "medic": 4083,
      "Roger": 4084,
      "custo": 4085,
      "powerful": 4086,
      "expert": 4087,
      "ordinary": 4088,
      "Hildy": 4089,
      "Chicago": 4090,
      "LO": 4091,
      "Mu": 4092,
      "dozen": 4093,
      "roof": 4094,
      "saving": 4095,
      "reser": 4096,
      "disease": 4097,
      "disappeared": 4098,
      "ships": 4099,
      "Alan": 4100,
      "selling": 4101,
      "Sidney": 4102,
      "Sonny": 4103,
      "chiat": 4104,
      "Eh": 4105,
      "Mars": 4106,
      "Pen": 4107,
      "ased": 4108,
      "jerk": 4109,
      "mort": 4110,
      "sis": 4111,
      "stic": 4112,
      "lip": 4113,
      "Italian": 4114,
      "ampi": 4115,
      "owns": 4116,
      "bleed": 4117,
      "Ready": 4118,
      "mostly": 4119,
      "general": 4120,
      "United": 4121,
      "bullet": 4122,
      "strike": 4123,
      "virus": 4124,
      "tempt": 4125,
      "Air": 4126,
      "Bra": 4127,
      "Barn": 4128,
      "Em": 4129,
      "Open": 4130,
      "Offic": 4131,
      "Sally": 4132,
      "pump": 4133,
      "loan": 4134,
      "ateful": 4135,
      "process": 4136,
      "letting": 4137,
      "thoughts": 4138,
      "finds": 4139,
      "picking": 4140,
      "pattern": 4141,
      "garage": 4142,
      "burned": 4143,
      "destroyed": 4144,
      "video": 4145,
      "counter": 4146,
      "Cool": 4147,
      "Might": 4148,
      "OF": 4149,
      "cise": 4150,
      "freak": 4151,
      "milk": 4152,
      "armed": 4153,
      "map": 4154,
      "plus": 4155,
      "grown": 4156,
      "path": 4157,
      "insist": 4158,
      "erious": 4159,
      "plays": 4160,
      "positive": 4161,
      "creep": 4162,
      "suspic": 4163,
      "loyal": 4164,
      "Sergeant": 4165,
      "Down": 4166,
      "Ham": 4167,
      "fund": 4168,
      "lun": 4169,
      "rant": 4170,
      "switch": 4171,
      "wet": 4172,
      "attorney": 4173,
      "research": 4174,
      "bes": 4175,
      "devil": 4176,
      "els": 4177,
      "spare": 4178,
      "science": 4179,
      "prote": 4180,
      "page": 4181,
      "parts": 4182,
      "falling": 4183,
      "psych": 4184,
      "regret": 4185,
      "fixed": 4186,
      "Enter": 4187,
      "connection": 4188,
      "quarter": 4189,
      "physical": 4190,
      "romantic": 4191,
      "Kid": 4192,
      "Linda": 4193,
      "sca": 4194,
      "oul": 4195,
      "stro": 4196,
      "stink": 4197,
      "ette": 4198,
      "moves": 4199,
      "maid": 4200,
      "wore": 4201,
      "shield": 4202,
      "restaur": 4203,
      "planned": 4204,
      "ladies": 4205,
      "shame": 4206,
      "terrific": 4207,
      "Queen": 4208,
      "Thursday": 4209,
      "Joseph": 4210,
      "Die": 4211,
      "Fer": 4212,
      "Wade": 4213,
      "flying": 4214,
      "someplace": 4215,
      "cake": 4216,
      "trunk": 4217,
      "uding": 4218,
      "final": 4219,
      "Jean": 4220,
      "Robin": 4221,
      "Earl": 4222,
      "eggs": 4223,
      "conscious": 4224,
      "Las": 4225,
      "Rep": 4226,
      "swell": 4227,
      "tun": 4228,
      "behavi": 4229,
      "tellin": 4230,
      "project": 4231,
      "Cole": 4232,
      "nerve": 4233,
      "audi": 4234,
      "Anybody": 4235,
      "Margo": 4236,
      "Couldn": 4237,
      "glasses": 4238,
      "cream": 4239,
      "fleet": 4240,
      "complicated": 4241,
      "Jap": 4242,
      "Low": 4243,
      "tied": 4244,
      "Head": 4245,
      "manage": 4246,
      "faster": 4247,
      "Whoa": 4248,
      "clever": 4249,
      "broad": 4250,
      "dude": 4251,
      "funeral": 4252,
      "dealing": 4253,
      "desper": 4254,
      "astic": 4255,
      "logist": 4256,
      "buying": 4257,
      "smoking": 4258,
      "attitude": 4259,
      "cabin": 4260,
      "Honor": 4261,
      "dancing": 4262,
      "rush": 4263,
      "uce": 4264,
      "ware": 4265,
      "sequ": 4266,
      "iding": 4267,
      "rica": 4268,
      "noise": 4269,
      "som": 4270,
      "thinkin": 4271,
      "deb": 4272,
      "inese": 4273,
      "tooth": 4274,
      "ached": 4275,
      "aches": 4276,
      "scar": 4277,
      "Master": 4278,
      "Clark": 4279,
      "health": 4280,
      "Bal": 4281,
      "Him": 4282,
      "Made": 4283,
      "cot": 4284,
      "nar": 4285,
      "pher": 4286,
      "rare": 4287,
      "vity": 4288,
      "ita": 4289,
      "hill": 4290,
      "courage": 4291,
      "shirt": 4292,
      "bloody": 4293,
      "touched": 4294,
      "ordered": 4295,
      "changes": 4296,
      "climb": 4297,
      "capable": 4298,
      "victim": 4299,
      "arrested": 4300,
      "Rachel": 4301,
      "15": 4302,
      "AL": 4303,
      "Money": 4304,
      "Tre": 4305,
      "ders": 4306,
      "fing": 4307,
      "junk": 4308,
      "resc": 4309,
      "chances": 4310,
      "goti": 4311,
      "lake": 4312,
      "demon": 4313,
      "condu": 4314,
      "ilver": 4315,
      "kidna": 4316,
      "waited": 4317,
      "jobs": 4318,
      "specially": 4319,
      "Police": 4320,
      "onds": 4321,
      "secretary": 4322,
      "cigarettes": 4323,
      "Victor": 4324,
      "Funny": 4325,
      "Ms": 4326,
      "Night": 4327,
      "Walk": 4328,
      "ko": 4329,
      "mous": 4330,
      "ying": 4331,
      "recall": 4332,
      "staff": 4333,
      "besides": 4334,
      "knowledge": 4335,
      "ador": 4336,
      "cean": 4337,
      "therap": 4338,
      "speaking": 4339,
      "Thought": 4340,
      "grateful": 4341,
      "vich": 4342,
      "laws": 4343,
      "Brown": 4344,
      "occas": 4345,
      "firm": 4346,
      "circum": 4347,
      "Tony": 4348,
      "data": 4349,
      "ior": 4350,
      "mask": 4351,
      "nam": 4352,
      "pills": 4353,
      "xy": 4354,
      "repor": 4355,
      "tos": 4356,
      "--?": 4357,
      "dell": 4358,
      "talks": 4359,
      "trave": 4360,
      "materi": 4361,
      "bedroom": 4362,
      "earlier": 4363,
      "opening": 4364,
      "jewel": 4365,
      "practically": 4366,
      "magazine": 4367,
      "Amy": 4368,
      "II": 4369,
      "members": 4370,
      "Chinese": 4371,
      "gger": 4372,
      "Gotta": 4373,
      "Prin": 4374,
      "prints": 4375,
      "pilot": 4376,
      "Lady": 4377,
      "Ron": 4378,
      "Sand": 4379,
      "Ven": 4380,
      "awake": 4381,
      "buck": 4382,
      "kins": 4383,
      "terror": 4384,
      "concent": 4385,
      "spring": 4386,
      "grade": 4387,
      "headed": 4388,
      "sending": 4389,
      "Steve": 4390,
      "rabbit": 4391,
      "Bon": 4392,
      "Res": 4393,
      "Wo": 4394,
      "bound": 4395,
      "dirt": 4396,
      "las": 4397,
      "wing": 4398,
      "yers": 4399,
      "hel": 4400,
      "liqu": 4401,
      "ception": 4402,
      "loss": 4403,
      "oughta": 4404,
      "screen": 4405,
      "Seems": 4406,
      "shift": 4407,
      "signed": 4408,
      "pulling": 4409,
      "confir": 4410,
      "baseball": 4411,
      "Simone": 4412,
      "receive": 4413,
      "details": 4414,
      "Fire": 4415,
      "Kir": 4416,
      "Tim": 4417,
      "citiz": 4418,
      "reput": 4419,
      "hates": 4420,
      "dom": 4421,
      "admi": 4422,
      "artment": 4423,
      "whore": 4424,
      "iest": 4425,
      "mont": 4426,
      "sweat": 4427,
      "Grant": 4428,
      "confused": 4429,
      "statement": 4430,
      "mirror": 4431,
      "laughing": 4432,
      "defense": 4433,
      "schedu": 4434,
      "Hurry": 4435,
      "Jam": 4436,
      "Si": 4437,
      "dare": 4438,
      "pure": 4439,
      "slight": 4440,
      "toward": 4441,
      "lips": 4442,
      "chose": 4443,
      "unusual": 4444,
      "bug": 4445,
      "angle": 4446,
      "drinks": 4447,
      "OUT": 4448,
      "horses": 4449,
      "psychiat": 4450,
      "North": 4451,
      "WHAT": 4452,
      "indeed": 4453,
      "Officer": 4454,
      "East": 4455,
      "Hu": 4456,
      "Vin": 4457,
      "fus": 4458,
      "guts": 4459,
      "tol": 4460,
      "negoti": 4461,
      "woke": 4462,
      "downstairs": 4463,
      "lets": 4464,
      "intend": 4465,
      "Beth": 4466,
      "Neither": 4467,
      "military": 4468,
      "sence": 4469,
      "cents": 4470,
      "huge": 4471,
      "Claren": 4472,
      "north": 4473,
      "freed": 4474,
      "invite": 4475,
      "created": 4476,
      "Williams": 4477,
      "Happy": 4478,
      "policy": 4479,
      "CO": 4480,
      "Gard": 4481,
      "Honest": 4482,
      "Mat": 4483,
      "Such": 4484,
      "Sister": 4485,
      "cil": 4486,
      "pred": 4487,
      "rink": 4488,
      "smile": 4489,
      "recommend": 4490,
      "ites": 4491,
      "arti": 4492,
      "kel": 4493,
      "loser": 4494,
      "decent": 4495,
      "sayin": 4496,
      "bury": 4497,
      "scient": 4498,
      "mond": 4499,
      "Church": 4500,
      "Reed": 4501,
      "nger": 4502,
      "France": 4503,
      "Jackie": 4504,
      "ators": 4505,
      "soldier": 4506,
      "swim": 4507,
      "mixed": 4508,
      "iers": 4509,
      "pment": 4510,
      "south": 4511,
      "itation": 4512,
      "betray": 4513,
      "otic": 4514,
      "cancer": 4515,
      "poet": 4516,
      "partners": 4517,
      "Start": 4518,
      "motherfucker": 4519,
      "entertain": 4520,
      "rupt": 4521,
      "Detective": 4522,
      "continue": 4523,
      "target": 4524,
      "several": 4525,
      "Jones": 4526,
      "Men": 4527,
      "lu": 4528,
      "pple": 4529,
      "thief": 4530,
      "terms": 4531,
      "conv": 4532,
      "Best": 4533,
      "carefully": 4534,
      "ization": 4535,
      "Rock": 4536,
      "served": 4537,
      "facts": 4538,
      "nearly": 4539,
      "offered": 4540,
      "tickets": 4541,
      "Ellie": 4542,
      "cigarette": 4543,
      "crowd": 4544,
      "Karl": 4545,
      "Texas": 4546,
      "circumst": 4547,
      "Clarence": 4548,
      "Dou": 4549,
      "grew": 4550,
      "punch": 4551,
      "rill": 4552,
      "ably": 4553,
      "tains": 4554,
      "stolen": 4555,
      "Force": 4556,
      "showing": 4557,
      "Sec": 4558,
      "creature": 4559,
      "Congratulations": 4560,
      "Cam": 4561,
      "Especially": 4562,
      "Kno": 4563,
      "Kane": 4564,
      "NA": 4565,
      "NE": 4566,
      "Play": 4567,
      "Ram": 4568,
      "Santa": 4569,
      "Wes": 4570,
      "tall": 4571,
      "ona": 4572,
      "lob": 4573,
      "justice": 4574,
      "tear": 4575,
      "fake": 4576,
      "result": 4577,
      "Almost": 4578,
      "walks": 4579,
      "thousands": 4580,
      "Mommy": 4581,
      "garbage": 4582,
      "Step": 4583,
      "ounce": 4584,
      "hidden": 4585,
      "example": 4586,
      "behavior": 4587,
      "Pull": 4588,
      "Sur": 4589,
      "dust": 4590,
      "rist": 4591,
      "rance": 4592,
      "vampi": 4593,
      "onna": 4594,
      "stant": 4595,
      "cey": 4596,
      "rights": 4597,
      "execut": 4598,
      "ruined": 4599,
      "realized": 4600,
      "tongue": 4601,
      "shock": 4602,
      "piano": 4603,
      "eighty": 4604,
      "midnight": 4605,
      "Perfect": 4606,
      "Phil": 4607,
      "Either": 4608,
      "Fair": 4609,
      "Sue": 4610,
      "Sail": 4611,
      "Terry": 4612,
      "bing": 4613,
      "bills": 4614,
      "gor": 4615,
      "nis": 4616,
      "swer": 4617,
      "heh": 4618,
      "ows": 4619,
      "lear": 4620,
      "bel": 4621,
      "wolf": 4622,
      "Island": 4623,
      "reality": 4624,
      "shots": 4625,
      "pressed": 4626,
      "Fifty": 4627,
      "expensive": 4628,
      "restaurant": 4629,
      "Jess": 4630,
      "Jacqu": 4631,
      "Med": 4632,
      "Name": 4633,
      "Promise": 4634,
      "Tur": 4635,
      "ict": 4636,
      "wide": 4637,
      "andon": 4638,
      "edge": 4639,
      "verage": 4640,
      "butter": 4641,
      "button": 4642,
      "ulation": 4643,
      "otherwise": 4644,
      "ignor": 4645,
      "breathe": 4646,
      "serv": 4647,
      "possibility": 4648,
      "iod": 4649,
      "Fucking": 4650,
      "riding": 4651,
      "burning": 4652,
      "belongs": 4653,
      "filled": 4654,
      "investigation": 4655,
      "incredible": 4656,
      "Welcome": 4657,
      "fingers": 4658,
      "reputation": 4659,
      "Ahh": 4660,
      "Kelly": 4661,
      "Nine": 4662,
      "Tues": 4663,
      "WE": 4664,
      "center": 4665,
      "ena": 4666,
      "bez": 4667,
      "asha": 4668,
      "robb": 4669,
      "sail": 4670,
      "cases": 4671,
      "artist": 4672,
      "constru": 4673,
      "agne": 4674,
      "ruit": 4675,
      "brings": 4676,
      "insult": 4677,
      "heading": 4678,
      "Jabez": 4679,
      "desire": 4680,
      "clearly": 4681,
      "value": 4682,
      "brilliant": 4683,
      "loaded": 4684,
      "transfer": 4685,
      "president": 4686,
      "fashi": 4687,
      "Sarah": 4688,
      "demand": 4689,
      "GH": 4690,
      "Hang": 4691,
      "Squ": 4692,
      "Tor": 4693,
      "cand": 4694,
      "national": 4695,
      "shad": 4696,
      "analy": 4697,
      "amb": 4698,
      "shar": 4699,
      "ureau": 4700,
      "mming": 4701,
      "compli": 4702,
      "Sean": 4703,
      "impressed": 4704,
      "reasonable": 4705,
      "confidence": 4706,
      "paint": 4707,
      "Quite": 4708,
      "swing": 4709,
      "quarters": 4710,
      "score": 4711,
      "Again": 4712,
      "Hill": 4713,
      "Naz": 4714,
      "Pau": 4715,
      "cooper": 4716,
      "link": 4717,
      "ole": 4718,
      "pit": 4719,
      "pill": 4720,
      "vot": 4721,
      "anz": 4722,
      "arily": 4723,
      "finding": 4724,
      "discovered": 4725,
      "izing": 4726,
      "Answer": 4727,
      "goddam": 4728,
      "crit": 4729,
      "elev": 4730,
      "ONE": 4731,
      "Nicky": 4732,
      "families": 4733,
      "advant": 4734,
      "arrived": 4735,
      "CI": 4736,
      "Lem": 4737,
      "SA": 4738,
      "Save": 4739,
      "avi": 4740,
      "iet": 4741,
      "mere": 4742,
      "stab": 4743,
      "alarm": 4744,
      "limit": 4745,
      "eteen": 4746,
      "ooth": 4747,
      "Web": 4748,
      "mance": 4749,
      "naked": 4750,
      "bags": 4751,
      "period": 4752,
      "agreed": 4753,
      "downtown": 4754,
      "angers": 4755,
      "kinds": 4756,
      "trail": 4757,
      "prior": 4758,
      "sixteen": 4759,
      "Both": 4760,
      "murderer": 4761,
      "???": 4762,
      "Suppose": 4763,
      "attractive": 4764,
      "Enterprise": 4765,
      "Hmmm": 4766,
      "Rand": 4767,
      "glor": 4768,
      "nation": 4769,
      "vote": 4770,
      "winter": 4771,
      "lem": 4772,
      "...'": 4773,
      "ality": 4774,
      "owned": 4775,
      "exact": 4776,
      "Today": 4777,
      "babies": 4778,
      "lesson": 4779,
      "promot": 4780,
      "volution": 4781,
      "Wasn": 4782,
      "vices": 4783,
      "pussy": 4784,
      "Beaut": 4785,
      "society": 4786,
      "fortunately": 4787,
      "Francisco": 4788,
      "Amb": 4789,
      "Flor": 4790,
      "Glen": 4791,
      "Hand": 4792,
      "Off": 4793,
      "bone": 4794,
      "influ": 4795,
      "assed": 4796,
      "tims": 4797,
      "urt": 4798,
      "pleasant": 4799,
      "express": 4800,
      "offense": 4801,
      "scary": 4802,
      "appears": 4803,
      "passion": 4804,
      "create": 4805,
      "Pardon": 4806,
      "trees": 4807,
      "kicked": 4808,
      "defend": 4809,
      "Patrick": 4810,
      "THAT": 4811,
      "appointment": 4812,
      "Count": 4813,
      "Department": 4814,
      "Claire": 4815,
      "wasting": 4816,
      "Bus": 4817,
      "Jer": 4818,
      "Pan": 4819,
      "gust": 4820,
      "stood": 4821,
      "formed": 4822,
      "abitch": 4823,
      "assure": 4824,
      "ints": 4825,
      "badly": 4826,
      "Second": 4827,
      "Neil": 4828,
      "Marsh": 4829,
      "Jesse": 4830,
      "reward": 4831,
      "genius": 4832,
      "Hope": 4833,
      "Caes": 4834,
      "distance": 4835,
      "growing": 4836,
      "spoken": 4837,
      "screwed": 4838,
      "Madame": 4839,
      "Plus": 4840,
      "Shoot": 4841,
      "Emper": 4842,
      "Ku": 4843,
      "RO": 4844,
      "Use": 4845,
      "ila": 4846,
      "nn": 4847,
      "oon": 4848,
      "refer": 4849,
      "associ": 4850,
      "docu": 4851,
      "rier": 4852,
      "pee": 4853,
      "saf": 4854,
      "nasty": 4855,
      "guards": 4856,
      "Howard": 4857,
      "rum": 4858,
      "marks": 4859,
      "mighty": 4860,
      "Move": 4861,
      "Anyone": 4862,
      "atory": 4863,
      "passing": 4864,
      "approach": 4865,
      "panic": 4866,
      "freedom": 4867,
      "Caesar": 4868,
      "Bor": 4869,
      "HA": 4870,
      "Hun": 4871,
      "Ir": 4872,
      "ILL": 4873,
      "Kit": 4874,
      "Mus": 4875,
      "Mitch": 4876,
      "Pick": 4877,
      "Sta": 4878,
      "Send": 4879,
      "kis": 4880,
      "range": 4881,
      "xter": 4882,
      "inch": 4883,
      "toi": 4884,
      "useum": 4885,
      "progress": 4886,
      "Going": 4887,
      "tort": 4888,
      "eries": 4889,
      "Forgive": 4890,
      "wondered": 4891,
      "charming": 4892,
      "solid": 4893,
      "Congress": 4894,
      "barely": 4895,
      "miracle": 4896,
      "Beautiful": 4897,
      "Emperor": 4898,
      "Dar": 4899,
      "Mul": 4900,
      "Pla": 4901,
      "toy": 4902,
      "otch": 4903,
      "forced": 4904,
      "rog": 4905,
      "pers": 4906,
      "obli": 4907,
      "China": 4908,
      "Carter": 4909,
      "Edward": 4910,
      "relative": 4911,
      "Baxter": 4912,
      "wallet": 4913,
      "valu": 4914,
      "telephone": 4915,
      "depends": 4916,
      "director": 4917,
      "Calm": 4918,
      "Romeo": 4919,
      "screaming": 4920,
      "sneak": 4921,
      "equipment": 4922,
      "BE": 4923,
      "Later": 4924,
      "vere": 4925,
      "onde": 4926,
      "tered": 4927,
      "whoever": 4928,
      "fac": 4929,
      "Doyle": 4930,
      "prob": 4931,
      "object": 4932,
      "cheese": 4933,
      "hunting": 4934,
      "Buff": 4935,
      "universe": 4936,
      "twist": 4937,
      "reckon": 4938,
      "introduce": 4939,
      "Agn": 4940,
      "ES": 4941,
      "Ooo": 4942,
      "Wen": 4943,
      "tits": 4944,
      "zer": 4945,
      "thir": 4946,
      "ancy": 4947,
      "llo": 4948,
      "west": 4949,
      "tick": 4950,
      "hop": 4951,
      "nold": 4952,
      "nail": 4953,
      "ousy": 4954,
      "imate": 4955,
      "Anne": 4956,
      "hurts": 4957,
      "deny": 4958,
      "nedy": 4959,
      "Steven": 4960,
      "official": 4961,
      "victims": 4962,
      "venture": 4963,
      "exciting": 4964,
      "Kennedy": 4965,
      "aboard": 4966,
      "Court": 4967,
      "publ": 4968,
      "Apparently": 4969,
      "Lisa": 4970,
      "Diego": 4971,
      "safety": 4972,
      "Agnes": 4973,
      "25": 4974,
      "CA": 4975,
      "Emp": 4976,
      "GET": 4977,
      "Hud": 4978,
      "Int": 4979,
      "Mind": 4980,
      "UT": 4981,
      "cure": 4982,
      "tan": 4983,
      "inner": 4984,
      "season": 4985,
      "antee": 4986,
      "iction": 4987,
      "ppy": 4988,
      "spit": 4989,
      "acy": 4990,
      "diam": 4991,
      "bling": 4992,
      "Need": 4993,
      "Getting": 4994,
      "function": 4995,
      "lawyers": 4996,
      "brave": 4997,
      "trained": 4998,
      "swald": 4999,
      "nesses": 5000,
      "popular": 5001,
      "fancy": 5002,
      "original": 5003,
      "learning": 5004,
      "ashamed": 5005,
      "IR": 5006,
      "fal": 5007,
      "mu": 5008,
      "eter": 5009,
      "mole": 5010,
      "shrink": 5011,
      "bles": 5012,
      "accomp": 5013,
      "Gold": 5014,
      "brand": 5015,
      "thrown": 5016,
      "venge": 5017,
      "Moz": 5018,
      "ggy": 5019,
      "millions": 5020,
      "painting": 5021,
      "secrets": 5022,
      "regard": 5023,
      "flesh": 5024,
      "Miami": 5025,
      "considered": 5026,
      "divorced": 5027,
      "odds": 5028,
      "Wonder": 5029,
      "circumstances": 5030,
      "14": 5031,
      "BA": 5032,
      "Oswald": 5033,
      "chat": 5034,
      "frea": 5035,
      "ocean": 5036,
      "uri": 5037,
      "vard": 5038,
      "ini": 5039,
      "stage": 5040,
      "union": 5041,
      "model": 5042,
      "mage": 5043,
      "conce": 5044,
      "scr": 5045,
      "prick": 5046,
      "century": 5047,
      "tests": 5048,
      "drag": 5049,
      "incident": 5050,
      "Times": 5051,
      "illegal": 5052,
      "extremely": 5053,
      "audience": 5054,
      "Secret": 5055,
      "Sailor": 5056,
      "Tuesday": 5057,
      "Darling": 5058,
      "Fre": 5059,
      "Nix": 5060,
      "SO": 5061,
      "Wall": 5062,
      "cles": 5063,
      "iac": 5064,
      "lousy": 5065,
      "py": 5066,
      "termin": 5067,
      "lover": 5068,
      "temper": 5069,
      "bored": 5070,
      "geon": 5071,
      "grant": 5072,
      "trace": 5073,
      "points": 5074,
      "spell": 5075,
      "priest": 5076,
      "singing": 5077,
      "Louise": 5078,
      "soldiers": 5079,
      "casino": 5080,
      "sucker": 5081,
      "frame": 5082,
      "experiment": 5083,
      "100": 5084,
      "Plan": 5085,
      "Sk": 5086,
      "Vada": 5087,
      "Work": 5088,
      "Yup": 5089,
      "bones": 5090,
      "fought": 5091,
      "nun": 5092,
      "invent": 5093,
      "render": 5094,
      "aint": 5095,
      "Stu": 5096,
      "Stand": 5097,
      "viol": 5098,
      "stern": 5099,
      "shake": 5100,
      "miser": 5101,
      "hunt": 5102,
      "laughter": 5103,
      "radi": 5104,
      "spending": 5105,
      "NOW": 5106,
      "knocked": 5107,
      "refuse": 5108,
      "guests": 5109,
      "Sweet": 5110,
      "Cont": 5111,
      "Kat": 5112,
      "Lenny": 5113,
      "bread": 5114,
      "tent": 5115,
      "anch": 5116,
      "dope": 5117,
      "uncey": 5118,
      "loso": 5119,
      "pleased": 5120,
      "Whose": 5121,
      "cared": 5122,
      "lotta": 5123,
      "reamed": 5124,
      "breathing": 5125,
      "tricks": 5126,
      "frank": 5127,
      "Los": 5128,
      "ailable": 5129,
      "custom": 5130,
      "leading": 5131,
      "burg": 5132,
      "attacked": 5133,
      "captain": 5134,
      "Dickie": 5135,
      "basement": 5136,
      "political": 5137,
      "benef": 5138,
      "impression": 5139,
      "Wayne": 5140,
      "knees": 5141,
      "Nathan": 5142,
      "repeat": 5143,
      "Eliza": 5144,
      "title": 5145,
      "performance": 5146,
      "material": 5147,
      "Burn": 5148,
      "Care": 5149,
      "Dra": 5150,
      "Free": 5151,
      "Gru": 5152,
      "Room": 5153,
      "UP": 5154,
      "VER": 5155,
      "rand": 5156,
      "vable": 5157,
      "beth": 5158,
      "cance": 5159,
      "arts": 5160,
      "cons": 5161,
      "workin": 5162,
      "sugar": 5163,
      "friendly": 5164,
      "traffic": 5165,
      "angel": 5166,
      "sensitive": 5167,
      "Meet": 5168,
      "humor": 5169,
      "Lomb": 5170,
      "Frankie": 5171,
      "Says": 5172,
      "jection": 5173,
      "register": 5174,
      "slip": 5175,
      "healthy": 5176,
      "Miller": 5177,
      "princi": 5178,
      "avoid": 5179,
      "guarantee": 5180,
      "recently": 5181,
      "admire": 5182,
      "?--": 5183,
      "Alice": 5184,
      "Bat": 5185,
      "Fall": 5186,
      "Gre": 5187,
      "Wy": 5188,
      "fab": 5189,
      "ired": 5190,
      "xx": 5191,
      "anx": 5192,
      "thee": 5193,
      "ller": 5194,
      "cken": 5195,
      "novel": 5196,
      "motor": 5197,
      "nap": 5198,
      "igno": 5199,
      "explan": 5200,
      "ulate": 5201,
      "liter": 5202,
      "placed": 5203,
      "Being": 5204,
      "sue": 5205,
      "disgust": 5206,
      "handsome": 5207,
      "minds": 5208,
      "impro": 5209,
      "parano": 5210,
      "Frances": 5211,
      "Uni": 5212,
      "Jewish": 5213,
      "deter": 5214,
      "wallow": 5215,
      "whenever": 5216,
      "Enough": 5217,
      "Chauncey": 5218,
      "easily": 5219,
      "direction": 5220,
      "Jews": 5221,
      "Mozart": 5222,
      "'!": 5223,
      "Case": 5224,
      "Haw": 5225,
      "Wed": 5226,
      "scan": 5227,
      "tt": 5228,
      "meal": 5229,
      "bein": 5230,
      "below": 5231,
      "rig": 5232,
      "coinc": 5233,
      "lap": 5234,
      "gear": 5235,
      "plate": 5236,
      "imony": 5237,
      "ission": 5238,
      "eria": 5239,
      "Forty": 5240,
      "Stone": 5241,
      "craft": 5242,
      "ummy": 5243,
      "Boss": 5244,
      "arranged": 5245,
      "YOUR": 5246,
      "woods": 5247,
      "Ricky": 5248,
      "Janet": 5249,
      "Gardiner": 5250,
      "Ass": 5251,
      "Bas": 5252,
      "Book": 5253,
      "Git": 5254,
      "Lots": 5255,
      "Whad": 5256,
      "Water": 5257,
      "billion": 5258,
      "gut": 5259,
      "gic": 5260,
      "han": 5261,
      "nick": 5262,
      "iti": 5263,
      "stret": 5264,
      "ara": 5265,
      "beam": 5266,
      "becoming": 5267,
      "Helen": 5268,
      "wanting": 5269,
      "female": 5270,
      "sacri": 5271,
      "exer": 5272,
      "permission": 5273,
      "proced": 5274,
      "sonof": 5275,
      "Read": 5276,
      "ully": 5277,
      "shoe": 5278,
      "warn": 5279,
      "Holl": 5280,
      "trusted": 5281,
      "testify": 5282,
      "Conne": 5283,
      "fishing": 5284,
      "itors": 5285,
      "sandwi": 5286,
      "failure": 5287,
      "Faith": 5288,
      "desperate": 5289,
      "Kirk": 5290,
      "advantage": 5291,
      "Aunt": 5292,
      "LD": 5293,
      "Lester": 5294,
      "Mis": 5295,
      "Mas": 5296,
      "cult": 5297,
      "mul": 5298,
      "remain": 5299,
      "educ": 5300,
      "alo": 5301,
      "quis": 5302,
      "suits": 5303,
      "cient": 5304,
      "Inter": 5305,
      "Secur": 5306,
      "chall": 5307,
      "nuclear": 5308,
      "foolish": 5309,
      "throwing": 5310,
      "photograph": 5311,
      "Lydia": 5312,
      "Number": 5313,
      "Special": 5314,
      "miserable": 5315,
      "Close": 5316,
      "Dri": 5317,
      "DON": 5318,
      "Fort": 5319,
      "Pow": 5320,
      "Sto": 5321,
      "US": 5322,
      "thumb": 5323,
      "release": 5324,
      "section": 5325,
      "Thel": 5326,
      "Heaven": 5327,
      "unhappy": 5328,
      "sphere": 5329,
      "pathetic": 5330,
      "matic": 5331,
      "aud": 5332,
      "finan": 5333,
      "border": 5334,
      "Boston": 5335,
      "available": 5336,
      "Child": 5337,
      "versity": 5338,
      "Clay": 5339,
      "changing": 5340,
      "opera": 5341,
      "windows": 5342,
      "occup": 5343,
      "Russia": 5344,
      "Feel": 5345,
      "Murphy": 5346,
      "stake": 5347,
      "Craig": 5348,
      "emotional": 5349,
      "cros": 5350,
      "satisfied": 5351,
      "assistant": 5352,
      "negative": 5353,
      "medicine": 5354,
      "toilet": 5355,
      "Security": 5356,
      "Friend": 5357,
      "Mine": 5358,
      "Mons": 5359,
      "National": 5360,
      "Wha": 5361,
      "dge": 5362,
      "mbo": 5363,
      "pity": 5364,
      "vehi": 5365,
      "alt": 5366,
      "tive": 5367,
      "core": 5368,
      "cage": 5369,
      "eline": 5370,
      "ieur": 5371,
      "Whoever": 5372,
      "carried": 5373,
      "houses": 5374,
      "counting": 5375,
      "parties": 5376,
      "cutting": 5377,
      "gery": 5378,
      "younger": 5379,
      "Charley": 5380,
      "bullets": 5381,
      "uniform": 5382,
      "Said": 5383,
      "fortunate": 5384,
      "champagne": 5385,
      "Monsieur": 5386,
      "17": 5387,
      "Dian": 5388,
      "Gal": 5389,
      "Kent": 5390,
      "MO": 5391,
      "RI": 5392,
      "Sleep": 5393,
      "Vo": 5394,
      "dar": 5395,
      "rings": 5396,
      "uate": 5397,
      "ades": 5398,
      "tast": 5399,
      "rail": 5400,
      "decl": 5401,
      "dict": 5402,
      "puts": 5403,
      "cloud": 5404,
      "interests": 5405,
      "Cather": 5406,
      "signs": 5407,
      "dreaming": 5408,
      "Club": 5409,
      "cleaning": 5410,
      "greed": 5411,
      "employ": 5412,
      "virgin": 5413,
      "memories": 5414,
      "politics": 5415,
      "authority": 5416,
      "Hotel": 5417,
      "Judge": 5418,
      "argument": 5419,
      "embarrassing": 5420,
      "Robinson": 5421,
      "reporter": 5422,
      "Elizabeth": 5423,
      "Cur": 5424,
      "Figure": 5425,
      "Kev": 5426,
      "fare": 5427,
      "gay": 5428,
      "enem": 5429,
      "ota": 5430,
      "chan": 5431,
      "sale": 5432,
      "mann": 5433,
      "indic": 5434,
      "imm": 5435,
      "rumor": 5436,
      "Josh": 5437,
      "survi": 5438,
      "fourteen": 5439,
      "worthy": 5440,
      "bilities": 5441,
      "sisters": 5442,
      "grandfather": 5443,
      "stealing": 5444,
      "community": 5445,
      "Price": 5446,
      "Brian": 5447,
      "route": 5448,
      "source": 5449,
      "Central": 5450,
      "suspicious": 5451,
      "Princess": 5452,
      "convince": 5453,
      "Florida": 5454,
      "Au": 5455,
      "Dire": 5456,
      "Karen": 5457,
      "Kurt": 5458,
      "Lot": 5459,
      "Pre": 5460,
      "Twelve": 5461,
      "fate": 5462,
      "ura": 5463,
      "hears": 5464,
      "sts": 5465,
      "enced": 5466,
      "libr": 5467,
      "rip": 5468,
      "colate": 5469,
      "sore": 5470,
      "hers": 5471,
      "pert": 5472,
      "commer": 5473,
      "sessed": 5474,
      "lands": 5475,
      "holds": 5476,
      "charges": 5477,
      "terribly": 5478,
      "leader": 5479,
      "emplo": 5480,
      "treated": 5481,
      "Commission": 5482,
      "engaged": 5483,
      "appropri": 5484,
      "connected": 5485,
      "electri": 5486,
      "Otherwise": 5487,
      "journal": 5488,
      "Laura": 5489,
      "disturb": 5490,
      "stroke": 5491,
      "Catherine": 5492,
      "Cast": 5493,
      "Glad": 5494,
      "Ned": 5495,
      "gimme": 5496,
      "nical": 5497,
      "wander": 5498,
      "thouse": 5499,
      "rem": 5500,
      "rema": 5501,
      "argue": 5502,
      "anda": 5503,
      "chasing": 5504,
      "rop": 5505,
      "term": 5506,
      "moder": 5507,
      "worm": 5508,
      "caine": 5509,
      "ently": 5510,
      "Sheila": 5511,
      "mble": 5512,
      "shoulder": 5513,
      "dime": 5514,
      "blown": 5515,
      "Albert": 5516,
      "solve": 5517,
      "solution": 5518,
      "HERE": 5519,
      "cleaned": 5520,
      "bothering": 5521,
      "Americans": 5522,
      "NOT": 5523,
      "Starfleet": 5524,
      "Fifteen": 5525,
      "thirteen": 5526,
      "explanation": 5527,
      "enemies": 5528,
      ".\"\"": 5529,
      "Cy": 5530,
      "Ethan": 5531,
      "Greg": 5532,
      "KE": 5533,
      "MA": 5534,
      "Ple": 5535,
      "Sort": 5536,
      "TA": 5537,
      "Wanna": 5538,
      "Women": 5539,
      "dan": 5540,
      "eth": 5541,
      "fruit": 5542,
      "ghe": 5543,
      "gig": 5544,
      "ovich": 5545,
      "tend": 5546,
      "wart": 5547,
      "reaction": 5548,
      "Young": 5549,
      "weal": 5550,
      "someday": 5551,
      "babe": 5552,
      "excellent": 5553,
      "caused": 5554,
      "shopping": 5555,
      "Fuckin": 5556,
      "seventeen": 5557,
      "curse": 5558,
      "bbie": 5559,
      "Viet": 5560,
      "motel": 5561,
      "Susie": 5562,
      "schedule": 5563,
      "false": 5564,
      "scratch": 5565,
      "sonofabitch": 5566,
      "Coun": 5567,
      "Hanna": 5568,
      "Lucky": 5569,
      "Non": 5570,
      "Otis": 5571,
      "ax": 5572,
      "bang": 5573,
      "gree": 5574,
      "hits": 5575,
      "piz": 5576,
      "rated": 5577,
      "eration": 5578,
      "theater": 5579,
      "--!": 5580,
      "forms": 5581,
      "capt": 5582,
      "istry": 5583,
      "spread": 5584,
      "pros": 5585,
      "moral": 5586,
      "helps": 5587,
      "studio": 5588,
      "stery": 5589,
      "Fran": 5590,
      "Debbie": 5591,
      "warning": 5592,
      "checking": 5593,
      "Brook": 5594,
      "corn": 5595,
      "horror": 5596,
      "destiny": 5597,
      "instin": 5598,
      "Morning": 5599,
      "ninety": 5600,
      "philoso": 5601,
      "fantastic": 5602,
      "successful": 5603,
      "tradition": 5604,
      "humili": 5605,
      "Virgin": 5606,
      "Barnes": 5607,
      "xygen": 5608,
      "Lemme": 5609,
      "valuable": 5610,
      "Wednes": 5611,
      "40": 5612,
      "FOR": 5613,
      "Hm": 5614,
      "RA": 5615,
      "ai": 5616,
      "bay": 5617,
      "gus": 5618,
      "ktor": 5619,
      "rise": 5620,
      "sam": 5621,
      "yards": 5622,
      "zero": 5623,
      "belt": 5624,
      "vert": 5625,
      "Whatta": 5626,
      "tial": 5627,
      "lored": 5628,
      "fection": 5629,
      "woulda": 5630,
      "conference": 5631,
      "Sheld": 5632,
      "jokes": 5633,
      "chain": 5634,
      "fourth": 5635,
      "cris": 5636,
      "crook": 5637,
      "murders": 5638,
      "While": 5639,
      "tiny": 5640,
      "walls": 5641,
      "slowly": 5642,
      "Superman": 5643,
      "entirely": 5644,
      "Viktor": 5645,
      "Gale": 5646,
      "intention": 5647,
      "therapy": 5648,
      "occasion": 5649,
      "Doug": 5650,
      ".</": 5651,
      "CE": 5652,
      "Cons": 5653,
      "Eric": 5654,
      "Kind": 5655,
      "Liz": 5656,
      "Mal": 5657,
      "Pear": 5658,
      "ack": 5659,
      "cere": 5660,
      "flies": 5661,
      "lant": 5662,
      "rust": 5663,
      "theat": 5664,
      "aside": 5665,
      "alco": 5666,
      "myst": 5667,
      "holy": 5668,
      "Nothin": 5669,
      "tage": 5670,
      "provide": 5671,
      "wherever": 5672,
      "stops": 5673,
      "mustn": 5674,
      "Also": 5675,
      "Marge": 5676,
      "Dear": 5677,
      "tries": 5678,
      "mistakes": 5679,
      "accord": 5680,
      "bargain": 5681,
      "respond": 5682,
      "grandmother": 5683,
      "bothered": 5684,
      "Follow": 5685,
      "Bern": 5686,
      "cruel": 5687,
      "eventually": 5688,
      "particularly": 5689,
      "Royal": 5690,
      "active": 5691,
      "Naturally": 5692,
      "bleeding": 5693,
      "protection": 5694,
      "compliment": 5695,
      "elevator": 5696,
      "appropriate": 5697,
      "22": 5698,
      "Bird": 5699,
      "MY": 5700,
      "Mall": 5701,
      "Pra": 5702,
      "Rad": 5703,
      "reached": 5704,
      "abor": 5705,
      "notes": 5706,
      "anyhow": 5707,
      "based": 5708,
      "shel": 5709,
      "existen": 5710,
      "Shelly": 5711,
      "shoulda": 5712,
      "reek": 5713,
      "sume": 5714,
      "brown": 5715,
      "remembered": 5716,
      "parking": 5717,
      "warrant": 5718,
      "Jeanne": 5719,
      "related": 5720,
      "instance": 5721,
      "distra": 5722,
      "officers": 5723,
      "squad": 5724,
      "Lake": 5725,
      "collection": 5726,
      "Alexander": 5727,
      "tempor": 5728,
      "flower": 5729,
      "Freddie": 5730,
      "nonsense": 5731,
      "Beau": 5732,
      "directly": 5733,
      "assignment": 5734,
      "instructions": 5735,
      "separate": 5736,
      "chemical": 5737,
      "Jessica": 5738,
      "Thelma": 5739,
      "Bay": 5740,
      "Bible": 5741,
      "Doo": 5742,
      "Hou": 5743,
      "IM": 5744,
      "OP": 5745,
      "aid": 5746,
      "nif": 5747,
      "oxygen": 5748,
      "silver": 5749,
      "wid": 5750,
      "retire": 5751,
      "liver": 5752,
      "golf": 5753,
      "Heather": 5754,
      "ulu": 5755,
      "spy": 5756,
      "focus": 5757,
      "assholes": 5758,
      "believes": 5759,
      "resist": 5760,
      "Starling": 5761,
      "venue": 5762,
      "harder": 5763,
      "warned": 5764,
      "Lois": 5765,
      "naturally": 5766,
      "systems": 5767,
      "stronger": 5768,
      "engage": 5769,
      "Sugar": 5770,
      "product": 5771,
      "Federal": 5772,
      "transport": 5773,
      "routine": 5774,
      "believable": 5775,
      "robbed": 5776,
      "ghosts": 5777,
      "mountain": 5778,
      "Jamie": 5779,
      "influence": 5780,
      "Han": 5781,
      "Jenny": 5782,
      "Met": 5783,
      "Va": 5784,
      "bars": 5785,
      "gall": 5786,
      "gather": 5787,
      "image": 5788,
      "mits": 5789,
      "micide": 5790,
      "pound": 5791,
      "swallow": 5792,
      "tha": 5793,
      "anie": 5794,
      "rell": 5795,
      "allas": 5796,
      "channe": 5797,
      "unit": 5798,
      "mob": 5799,
      "ctly": 5800,
      "ppin": 5801,
      "shed": 5802,
      "However": 5803,
      "ulse": 5804,
      "assass": 5805,
      "assador": 5806,
      "asks": 5807,
      "standard": 5808,
      "surely": 5809,
      "Top": 5810,
      "ansas": 5811,
      "setting": 5812,
      "certi": 5813,
      "hurting": 5814,
      "trigger": 5815,
      "vessel": 5816,
      "secure": 5817,
      "gious": 5818,
      "INT": 5819,
      "Africa": 5820,
      "passport": 5821,
      "events": 5822,
      "Federation": 5823,
      "confession": 5824,
      "Government": 5825,
      "frozen": 5826,
      "Wrong": 5827,
      "Ce": 5828,
      "Cat": 5829,
      "Cre": 5830,
      "Dark": 5831,
      "Oper": 5832,
      "UR": 5833,
      "aim": 5834,
      "cen": 5835,
      "fig": 5836,
      "mister": 5837,
      "rit": 5838,
      "replace": 5839,
      "aries": 5840,
      "lia": 5841,
      "forth": 5842,
      "east": 5843,
      "cting": 5844,
      "ppers": 5845,
      "backs": 5846,
      "Doe": 5847,
      "spin": 5848,
      "happiness": 5849,
      "bump": 5850,
      "scum": 5851,
      "stands": 5852,
      "rude": 5853,
      "irsty": 5854,
      "ctors": 5855,
      "planes": 5856,
      "Surely": 5857,
      "struck": 5858,
      "chocolate": 5859,
      "checks": 5860,
      "metal": 5861,
      "effort": 5862,
      "grace": 5863,
      "ential": 5864,
      "testimony": 5865,
      "destru": 5866,
      "current": 5867,
      "ranch": 5868,
      "personality": 5869,
      "staring": 5870,
      "treasure": 5871,
      "bastards": 5872,
      "steps": 5873,
      "School": 5874,
      "True": 5875,
      "Veron": 5876,
      "stitute": 5877,
      "Claudia": 5878,
      "Angeles": 5879,
      "Jacqueline": 5880,
      "Kevin": 5881,
      "13": 5882,
      "Dallas": 5883,
      "Pay": 5884,
      "blast": 5885,
      "cable": 5886,
      "hmm": 5887,
      "jet": 5888,
      "mill": 5889,
      "mass": 5890,
      "mud": 5891,
      "smar": 5892,
      "vey": 5893,
      "aling": 5894,
      "tian": 5895,
      "rape": 5896,
      "worn": 5897,
      "cile": 5898,
      "Chance": 5899,
      "mary": 5900,
      "Coll": 5901,
      "Johnnie": 5902,
      "hundreds": 5903,
      "Marcus": 5904,
      "ggin": 5905,
      "privi": 5906,
      "surface": 5907,
      "stranger": 5908,
      "vinced": 5909,
      "Quiet": 5910,
      "Boys": 5911,
      "football": 5912,
      "Graham": 5913,
      "delivery": 5914,
      "suffer": 5915,
      "Terri": 5916,
      "Lawson": 5917,
      "Claude": 5918,
      "Dunbar": 5919,
      "lifet": 5920,
      "intelligence": 5921,
      "rescue": 5922,
      "Diane": 5923,
      "Wednesday": 5924,
      "Pearl": 5925,
      "existence": 5926,
      "Veronica": 5927,
      "45": 5928,
      "Jill": 5929,
      "Rex": 5930,
      "Sing": 5931,
      "Serious": 5932,
      "bie": 5933,
      "cong": 5934,
      "dating": 5935,
      "zoo": 5936,
      "thrill": 5937,
      "attempt": 5938,
      "...-": 5939,
      "iron": 5940,
      "Hear": 5941,
      "degre": 5942,
      "precious": 5943,
      "cheer": 5944,
      "foreign": 5945,
      "askin": 5946,
      "monkey": 5947,
      "Tod": 5948,
      "closing": 5949,
      "clus": 5950,
      "sets": 5951,
      "joking": 5952,
      "pays": 5953,
      "Roth": 5954,
      "chase": 5955,
      "corpor": 5956,
      "policeman": 5957,
      "Barry": 5958,
      "ensive": 5959,
      "nineteen": 5960,
      "Senate": 5961,
      "Suz": 5962,
      "location": 5963,
      "ivid": 5964,
      "village": 5965,
      "Meaning": 5966,
      "CIA": 5967,
      "customers": 5968,
      "Wyatt": 5969,
      "-...": 5970,
      "Mont": 5971,
      "Pier": 5972,
      "average": 5973,
      "fits": 5974,
      "kers": 5975,
      "ns": 5976,
      "inte": 5977,
      "iso": 5978,
      "outa": 5979,
      "oops": 5980,
      "rial": 5981,
      "amps": 5982,
      "noble": 5983,
      "loving": 5984,
      "rake": 5985,
      "illa": 5986,
      "deck": 5987,
      "ookie": 5988,
      "makin": 5989,
      "posing": 5990,
      "ucker": 5991,
      "fuckers": 5992,
      "Thor": 5993,
      "underground": 5994,
      "wray": 5995,
      "Bell": 5996,
      "erior": 5997,
      "Col": 5998,
      "clin": 5999,
      "magine": 6000,
      "Mayor": 6001,
      "Prince": 6002,
      "rolled": 6003,
      "soup": 6004,
      "smells": 6005,
      "jumped": 6006,
      "juice": 6007,
      "Shouldn": 6008,
      "patients": 6009,
      "recei": 6010,
      "castle": 6011,
      "suffering": 6012,
      "Understand": 6013,
      "cording": 6014,
      "Lampert": 6015,
      "sharp": 6016,
      "Webster": 6017,
      "Glenn": 6018,
      "Mulwray": 6019,
      ".\"": 6020,
      "Hunt": 6021,
      "Much": 6022,
      "Ret": 6023,
      "Sun": 6024,
      "bun": 6025,
      "cats": 6026,
      "sink": 6027,
      "vit": 6028,
      "refle": 6029,
      "review": 6030,
      "riot": 6031,
      "aming": 6032,
      "manner": 6033,
      "coulda": 6034,
      "rug": 6035,
      "opard": 6036,
      "Roman": 6037,
      "hitting": 6038,
      "higher": 6039,
      "highly": 6040,
      "bara": 6041,
      "goddamned": 6042,
      "River": 6043,
      "Barbara": 6044,
      "sticks": 6045,
      "capital": 6046,
      "strugg": 6047,
      "package": 6048,
      "including": 6049,
      "occurred": 6050,
      "coincidence": 6051,
      "degrees": 6052,
      "60": 6053,
      "Duff": 6054,
      "Fam": 6055,
      "Ren": 6056,
      "Set": 6057,
      "Te": 6058,
      "Tar": 6059,
      "pink": 6060,
      "pitch": 6061,
      "vari": 6062,
      "wreck": 6063,
      "ancient": 6064,
      "toms": 6065,
      "meth": 6066,
      "stiff": 6067,
      "becomes": 6068,
      "keeper": 6069,
      "ett": 6070,
      "wives": 6071,
      "raised": 6072,
      "tears": 6073,
      "constant": 6074,
      "convinced": 6075,
      "fag": 6076,
      "faces": 6077,
      "agger": 6078,
      "commission": 6079,
      "trapped": 6080,
      "Devil": 6081,
      "locks": 6082,
      "sexy": 6083,
      "Quick": 6084,
      "sweetie": 6085,
      "posite": 6086,
      "According": 6087,
      "fascin": 6088,
      "--------------------------------": 6089,
      "Vincent": 6090,
      "Business": 6091,
      "Virginia": 6092,
      "Alf": 6093,
      "Buck": 6094,
      "Gar": 6095,
      "Hy": 6096,
      "Imagine": 6097,
      "Land": 6098,
      "OW": 6099,
      "Power": 6100,
      "Row": 6101,
      "tank": 6102,
      "uva": 6103,
      "atin": 6104,
      "requi": 6105,
      "utter": 6106,
      "adjust": 6107,
      "roit": 6108,
      "sher": 6109,
      "exception": 6110,
      "yellow": 6111,
      "apple": 6112,
      "resses": 6113,
      "handed": 6114,
      "clue": 6115,
      "pipe": 6116,
      "Excellent": 6117,
      "surrender": 6118,
      "Peel": 6119,
      "viously": 6120,
      "protecting": 6121,
      "Berlin": 6122,
      "Freddy": 6123,
      "committee": 6124,
      "Detroit": 6125,
      "quality": 6126,
      "journey": 6127,
      "specific": 6128,
      "Stephen": 6129,
      "glory": 6130,
      "Wendy": 6131,
      "Gittes": 6132,
      "24": 6133,
      "Bart": 6134,
      "Gall": 6135,
      "Lex": 6136,
      "pour": 6137,
      "tub": 6138,
      "tune": 6139,
      "wings": 6140,
      "revenge": 6141,
      "mechan": 6142,
      "stable": 6143,
      "outfit": 6144,
      "chip": 6145,
      "rose": 6146,
      "rocks": 6147,
      "colored": 6148,
      "degree": 6149,
      "boot": 6150,
      "Andrew": 6151,
      "individ": 6152,
      "exit": 6153,
      "contain": 6154,
      "dip": 6155,
      "mini": 6156,
      "packed": 6157,
      "headache": 6158,
      "badge": 6159,
      "Ford": 6160,
      "phony": 6161,
      "umper": 6162,
      "Board": 6163,
      "worrying": 6164,
      "sounded": 6165,
      "Hol": 6166,
      "witnesses": 6167,
      "complex": 6168,
      "fellas": 6169,
      "Maxine": 6170,
      "possession": 6171,
      "ungle": 6172,
      "swimming": 6173,
      "punish": 6174,
      "labor": 6175,
      "Parker": 6176,
      "tunnel": 6177,
      "GHT": 6178,
      "AM": 6179,
      "Cub": 6180,
      "Eat": 6181,
      "Gus": 6182,
      "Mason": 6183,
      "PE": 6184,
      "Smo": 6185,
      "Tot": 6186,
      "ckey": 6187,
      "ds": 6188,
      "hm": 6189,
      "wh": 6190,
      "measure": 6191,
      "isher": 6192,
      "itlin": 6193,
      "stress": 6194,
      "beli": 6195,
      "beating": 6196,
      "liber": 6197,
      "adult": 6198,
      "washed": 6199,
      "coke": 6200,
      "dece": 6201,
      "pley": 6202,
      "exchange": 6203,
      "ulcan": 6204,
      "goodness": 6205,
      "stopping": 6206,
      "Inspe": 6207,
      "Looking": 6208,
      "dammit": 6209,
      "Jeez": 6210,
      "charged": 6211,
      "Caitlin": 6212,
      "Post": 6213,
      "version": 6214,
      "Herr": 6215,
      "winning": 6216,
      "squee": 6217,
      "treating": 6218,
      "treatment": 6219,
      "Commun": 6220,
      "bowling": 6221,
      "coward": 6222,
      "profession": 6223,
      "settled": 6224,
      "Mexican": 6225,
      "escaped": 6226,
      "embarrassed": 6227,
      "nigger": 6228,
      "supplies": 6229,
      "fuss": 6230,
      "factory": 6231,
      "Inspector": 6232,
      "Asi": 6233,
      "ARE": 6234,
      "Bond": 6235,
      "Cow": 6236,
      "Pi": 6237,
      "Val": 6238,
      "bble": 6239,
      "cul": 6240,
      "dish": 6241,
      "mour": 6242,
      "uel": 6243,
      "ww": 6244,
      "rend": 6245,
      "itive": 6246,
      "enna": 6247,
      "hibit": 6248,
      "coast": 6249,
      "defe": 6250,
      "deposit": 6251,
      "bail": 6252,
      "exists": 6253,
      "failed": 6254,
      "prevent": 6255,
      "scen": 6256,
      "sum": 6257,
      "mony": 6258,
      "blonde": 6259,
      "lower": 6260,
      "eaten": 6261,
      "skull": 6262,
      "HER": 6263,
      "Bai": 6264,
      "pressing": 6265,
      "Ripley": 6266,
      "June": 6267,
      "costs": 6268,
      "nette": 6269,
      "polite": 6270,
      "Grandma": 6271,
      "conscience": 6272,
      "loyalty": 6273,
      "Dign": 6274,
      "Gary": 6275,
      "Wit": 6276,
      "Year": 6277,
      "Zero": 6278,
      "bio": 6279,
      "bond": 6280,
      "cco": 6281,
      "dough": 6282,
      "rade": 6283,
      "limp": 6284,
      "cocaine": 6285,
      "device": 6286,
      "sack": 6287,
      "sakes": 6288,
      "gel": 6289,
      "yell": 6290,
      "underwear": 6291,
      "estate": 6292,
      "pace": 6293,
      "county": 6294,
      "breaks": 6295,
      "0000": 6296,
      "serial": 6297,
      "Hospital": 6298,
      "touching": 6299,
      "machines": 6300,
      "attend": 6301,
      "returned": 6302,
      "Having": 6303,
      "Super": 6304,
      "committed": 6305,
      "Austin": 6306,
      "mountains": 6307,
      "federal": 6308,
      "powers": 6309,
      "received": 6310,
      "psychiatrist": 6311,
      "article": 6312,
      "frankly": 6313,
      "audition": 6314,
      "Hannah": 6315,
      "nifer": 6316,
      "Avenue": 6317,
      "Bank": 6318,
      "Cri": 6319,
      "Gent": 6320,
      "Light": 6321,
      "Live": 6322,
      "Nur": 6323,
      "Rever": 6324,
      "Sex": 6325,
      "Vice": 6326,
      "Vince": 6327,
      "Vio": 6328,
      "Vulcan": 6329,
      "steak": 6330,
      "selor": 6331,
      "ashes": 6332,
      "gher": 6333,
      "soap": 6334,
      "shown": 6335,
      "dee": 6336,
      "delight": 6337,
      "seek": 6338,
      "worker": 6339,
      "wave": 6340,
      "Chin": 6341,
      "tons": 6342,
      "mates": 6343,
      "umn": 6344,
      "steady": 6345,
      "dealer": 6346,
      "species": 6347,
      "smooth": 6348,
      "fighter": 6349,
      "series": 6350,
      "penny": 6351,
      "locker": 6352,
      "anese": 6353,
      "began": 6354,
      "Lula": 6355,
      "County": 6356,
      "organization": 6357,
      "techno": 6358,
      "champion": 6359,
      "fuel": 6360,
      "Hitler": 6361,
      "citizen": 6362,
      "stretch": 6363,
      "financial": 6364,
      "darlin": 6365,
      "ghest": 6366,
      "?]": 6367,
      "Cho": 6368,
      "Kiss": 6369,
      "MAN": 6370,
      "Prey": 6371,
      "Rat": 6372,
      "Sel": 6373,
      "bis": 6374,
      "dea": 6375,
      "eger": 6376,
      "hust": 6377,
      "lane": 6378,
      "patch": 6379,
      "von": 6380,
      "wag": 6381,
      "thick": 6382,
      "stal": 6383,
      "hal": 6384,
      "raq": 6385,
      "managed": 6386,
      "convi": 6387,
      "bless": 6388,
      "imal": 6389,
      "grass": 6390,
      "acted": 6391,
      "Makes": 6392,
      "Negro": 6393,
      "joined": 6394,
      "Art": 6395,
      "Arth": 6396,
      "Grady": 6397,
      "cuit": 6398,
      "falls": 6399,
      "fallen": 6400,
      "Lucy": 6401,
      "instit": 6402,
      "Julie": 6403,
      "Speak": 6404,
      "banks": 6405,
      "Build": 6406,
      "virt": 6407,
      "enjoyed": 6408,
      "threatened": 6409,
      "Elliot": 6410,
      "Nico": 6411,
      "basic": 6412,
      "clients": 6413,
      "Duke": 6414,
      "AAAA": 6415,
      "Germans": 6416,
      "Governor": 6417,
      "describe": 6418,
      "Obviously": 6419,
      "powder": 6420,
      "Jennifer": 6421,
      "scale": 6422,
      "Japanese": 6423,
      "Paulie": 6424,
      "exercise": 6425,
      "theatre": 6426,
      "lifetime": 6427,
      "Ang": 6428,
      "Bureau": 6429,
      "CON": 6430,
      "Flet": 6431,
      "Fried": 6432,
      "Face": 6433,
      "Iraq": 6434,
      "Kansas": 6435,
      "Lin": 6436,
      "Pin": 6437,
      "Person": 6438,
      "Sci": 6439,
      "Sandy": 6440,
      "Tran": 6441,
      "museum": 6442,
      "vul": 6443,
      "zation": 6444,
      "zzy": 6445,
      "beside": 6446,
      "boats": 6447,
      "boots": 6448,
      "pol": 6449,
      "ents": 6450,
      "useful": 6451,
      "concept": 6452,
      "consequ": 6453,
      "Donald": 6454,
      "preach": 6455,
      "plastic": 6456,
      "Toby": 6457,
      "?!!": 6458,
      "Definitely": 6459,
      "surround": 6460,
      "movement": 6461,
      "Harvard": 6462,
      "signature": 6463,
      "begins": 6464,
      "answered": 6465,
      "Marylin": 6466,
      "rolling": 6467,
      "Company": 6468,
      "Julia": 6469,
      "Juliet": 6470,
      "salesman": 6471,
      "holiday": 6472,
      "liquor": 6473,
      "library": 6474,
      "employe": 6475,
      "Brooklyn": 6476,
      "Arthur": 6477,
      "Bever": 6478,
      "Cyn": 6479,
      "Dy": 6480,
      "End": 6481,
      "Fl": 6482,
      "Ka": 6483,
      "Kate": 6484,
      "NI": 6485,
      "dull": 6486,
      "fet": 6487,
      "jungle": 6488,
      "mart": 6489,
      "san": 6490,
      "wra": 6491,
      "initi": 6492,
      "erie": 6493,
      "leans": 6494,
      "esc": 6495,
      "nest": 6496,
      "Italy": 6497,
      "Heh": 6498,
      "depressed": 6499,
      "perform": 6500,
      "aging": 6501,
      "spook": 6502,
      "ilar": 6503,
      "minor": 6504,
      "pride": 6505,
      "brush": 6506,
      "retta": 6507,
      "Alvy": 6508,
      "Dean": 6509,
      "Willie": 6510,
      "Drink": 6511,
      "reports": 6512,
      "honestly": 6513,
      "Mikey": 6514,
      "folk": 6515,
      "phia": 6516,
      "pistol": 6517,
      "Craw": 6518,
      "newspapers": 6519,
      "uggie": 6520,
      "supply": 6521,
      "Irish": 6522,
      "Beaumont": 6523,
      "Dignan": 6524,
      "Bel": 6525,
      "Cad": 6526,
      "Came": 6527,
      "Many": 6528,
      "Used": 6529,
      "Wild": 6530,
      "breed": 6531,
      "dreamed": 6532,
      "git": 6533,
      "yuh": 6534,
      "-": 6535,
      "owes": 6536,
      "senger": 6537,
      "rict": 6538,
      "weed": 6539,
      "ads": 6540,
      "thern": 6541,
      "tap": 6542,
      "wanta": 6543,
      "launch": 6544,
      "manners": 6545,
      "plend": 6546,
      "permit": 6547,
      "atell": 6548,
      "background": 6549,
      "affect": 6550,
      "presence": 6551,
      "Isra": 6552,
      "moron": 6553,
      "supper": 6554,
      "opposite": 6555,
      "strangers": 6556,
      "graphi": 6557,
      "grapher": 6558,
      "Span": 6559,
      "teaching": 6560,
      "frequ": 6561,
      "Grail": 6562,
      "Inde": 6563,
      "creatures": 6564,
      "salary": 6565,
      "appearance": 6566,
      "slipped": 6567,
      "Phill": 6568,
      "blocks": 6569,
      "basket": 6570,
      "snake": 6571,
      "sieu": 6572,
      "Brothers": 6573,
      "develop": 6574,
      "designed": 6575,
      "intelligent": 6576,
      "Small": 6577,
      "jewelry": 6578,
      "kissed": 6579,
      "anxious": 6580,
      "remains": 6581,
      "Gentle": 6582,
      "-": 6583,
      "Camp": 6584,
      "Dif": 6585,
      "Ger": 6586,
      "Gonna": 6587,
      "Navy": 6588,
      "Slow": 6589,
      "dat": 6590,
      "dame": 6591,
      "pha": 6592,
      "retired": 6593,
      "revolution": 6594,
      "haul": 6595,
      "mystery": 6596,
      "tier": 6597,
      "takin": 6598,
      "ryn": 6599,
      "unte": 6600,
      "raped": 6601,
      "shine": 6602,
      "urgent": 6603,
      "sages": 6604,
      "hypo": 6605,
      "ician": 6606,
      "dya": 6607,
      "convent": 6608,
      "queen": 6609,
      "plug": 6610,
      "imum": 6611,
      "buzz": 6612,
      "estab": 6613,
      "resign": 6614,
      "dram": 6615,
      "awfully": 6616,
      "Jackson": 6617,
      "symbo": 6618,
      "Unfortunately": 6619,
      "Screw": 6620,
      "profit": 6621,
      "alien": 6622,
      "THIS": 6623,
      "neighbors": 6624,
      "attracted": 6625,
      "Stanley": 6626,
      "students": 6627,
      "psychic": 6628,
      "predict": 6629,
      "Ambassador": 6630,
      "torture": 6631,
      "Hudson": 6632,
      "ignore": 6633,
      "paranoid": 6634,
      "vehicle": 6635,
      "Ama": 6636,
      "Data": 6637,
      "Edie": 6638,
      "Emi": 6639,
      "Kath": 6640,
      "Peace": 6641,
      "RY": 6642,
      "Sad": 6643,
      "Stra": 6644,
      "Ski": 6645,
      "sucks": 6646,
      "slaughter": 6647,
      "vour": 6648,
      "tore": 6649,
      "stall": 6650,
      "enge": 6651,
      "beef": 6652,
      "edi": 6653,
      "ushed": 6654,
      "raw": 6655,
      "shy": 6656,
      "nails": 6657,
      "useless": 6658,
      "tool": 6659,
      "proceed": 6660,
      "leased": 6661,
      "Justice": 6662,
      "actual": 6663,
      "stays": 6664,
      "compan": 6665,
      "tical": 6666,
      "pretending": 6667,
      "yah": 6668,
      "surgery": 6669,
      "earn": 6670,
      "Left": 6671,
      "Catho": 6672,
      "lanca": 6673,
      "kissing": 6674,
      "Scotty": 6675,
      "Truman": 6676,
      "snap": 6677,
      "violent": 6678,
      "violence": 6679,
      "belief": 6680,
      "nightmares": 6681,
      "Tyler": 6682,
      "promotion": 6683,
      "document": 6684,
      "Nixon": 6685,
      "invented": 6686,
      "pizza": 6687,
      "method": 6688,
      "Catholic": 6689,
      "Auggie": 6690,
      "Bast": 6691,
      "Cli": 6692,
      "Cross": 6693,
      "Gill": 6694,
      "Jun": 6695,
      "Kru": 6696,
      "Matt": 6697,
      "Wind": 6698,
      "ape": 6699,
      "eu": 6700,
      "fence": 6701,
      "ghed": 6702,
      "oy": 6703,
      "ums": 6704,
      "": 6705,
      "thia": 6706,
      "repair": 6707,
      "remark": 6708,
      "lecture": 6709,
      "belly": 6710,
      "assa": 6711,
      "kee": 6712,
      "lder": 6713,
      "ader": 6714,
      "adventure": 6715,
      "aband": 6716,
      "ups": 6717,
      "lame": 6718,
      "maniac": 6719,
      "sheets": 6720,
      "faced": 6721,
      "trucks": 6722,
      "league": 6723,
      "everyday": 6724,
      "precise": 6725,
      "killers": 6726,
      "paign": 6727,
      "blan": 6728,
      "disc": 6729,
      "closet": 6730,
      "Coming": 6731,
      "lessons": 6732,
      "shore": 6733,
      "payment": 6734,
      "senior": 6735,
      "visible": 6736,
      "magn": 6737,
      "Gray": 6738,
      "worthless": 6739,
      "mercy": 6740,
      "Clar": 6741,
      "legit": 6742,
      "cells": 6743,
      "Dana": 6744,
      "filthy": 6745,
      "Laure": 6746,
      "McC": 6747,
      "Command": 6748,
      "dawn": 6749,
      "prisoner": 6750,
      "agreement": 6751,
      "pushed": 6752,
      "Elvis": 6753,
      "scription": 6754,
      "GOT": 6755,
      "dumped": 6756,
      "Minister": 6757,
      "taxi": 6758,
      "prepare": 6759,
      "delivered": 6760,
      "Girl": 6761,
      "University": 6762,
      "Drive": 6763,
      "crossed": 6764,
      "according": 6765,
      "Beverly": 6766,
      "Cynthia": 6767,
      "16": 6768,
      "Apri": 6769,
      "Done": 6770,
      "Dest": 6771,
      "Evan": 6772,
      "Easter": 6773,
      "Lay": 6774,
      "Lad": 6775,
      "Mant": 6776,
      "Malk": 6777,
      "fried": 6778,
      "furn": 6779,
      "jan": 6780,
      "tone": 6781,
      "reve": 6782,
      "tox": 6783,
      "toast": 6784,
      "melt": 6785,
      "orter": 6786,
      "stream": 6787,
      "semb": 6788,
      "lend": 6789,
      "bels": 6790,
      "essa": 6791,
      "idal": 6792,
      "alle": 6793,
      "Its": 6794,
      "homo": 6795,
      "mobi": 6796,
      "posal": 6797,
      "however": 6798,
      "scow": 6799,
      "feelin": 6800,
      "homework": 6801,
      "sits": 6802,
      "clown": 6803,
      "drown": 6804,
      "Ordell": 6805,
      "penter": 6806,
      "freezing": 6807,
      "cuff": 6808,
      "burgl": 6809,
      "imagination": 6810,
      "darkness": 6811,
      "films": 6812,
      "considering": 6813,
      "Blood": 6814,
      "investment": 6815,
      "bowl": 6816,
      "threatening": 6817,
      "Saunders": 6818,
      "cowboy": 6819,
      "Satan": 6820,
      "Truth": 6821,
      "Clean": 6822,
      "timate": 6823,
      "Victori": 6824,
      "Christian": 6825,
      "assigned": 6826,
      "religious": 6827,
      "effects": 6828,
      "mortal": 6829,
      "construction": 6830,
      "procedure": 6831,
      "railroad": 6832,
      "Indeed": 6833,
      "Phillip": 6834,
      "Malkovich": 6835,
      "*!": 6836,
      "Diz": 6837,
      "Hay": 6838,
      "Im": 6839,
      "Pit": 6840,
      "Vick": 6841,
      "duck": 6842,
      "equ": 6843,
      "fri": 6844,
      "vine": 6845,
      "wright": 6846,
      "media": 6847,
      "stones": 6848,
      "doo": 6849,
      "forces": 6850,
      "aded": 6851,
      "arest": 6852,
      "entit": 6853,
      "Ohhh": 6854,
      "owner": 6855,
      "civil": 6856,
      "bride": 6857,
      "Somewhere": 6858,
      "mature": 6859,
      "Anth": 6860,
      "sentence": 6861,
      "flash": 6862,
      "velous": 6863,
      "honeymoon": 6864,
      "Trans": 6865,
      "discussion": 6866,
      "osity": 6867,
      "omic": 6868,
      "Service": 6869,
      "drawing": 6870,
      "agents": 6871,
      "Private": 6872,
      "generous": 6873,
      "convenient": 6874,
      "Party": 6875,
      "fashion": 6876,
      "Lombard": 6877,
      "disgusting": 6878,
      "Reverend": 6879,
      "plendid": 6880,
      "21": 6881,
      "Fle": 6882,
      "Ian": 6883,
      "Kin": 6884,
      "Kram": 6885,
      "Oz": 6886,
      "Pink": 6887,
      "Us": 6888,
      "Yester": 6889,
      "bby": 6890,
      "gion": 6891,
      "gative": 6892,
      "hint": 6893,
      "remove": 6894,
      "ormous": 6895,
      "enormous": 6896,
      "iddle": 6897,
      "hose": 6898,
      "tag": 6899,
      "uncomfortable": 6900,
      "racket": 6901,
      "geous": 6902,
      "contest": 6903,
      "meantime": 6904,
      "quire": 6905,
      "mbley": 6906,
      "trash": 6907,
      "spill": 6908,
      "bugs": 6909,
      "apa": 6910,
      "actress": 6911,
      "Chuck": 6912,
      "Yours": 6913,
      "counts": 6914,
      "parole": 6915,
      "tribut": 6916,
      "strate": 6917,
      "Rod": 6918,
      "messed": 6919,
      "figures": 6920,
      "Homer": 6921,
      "giant": 6922,
      "Chicken": 6923,
      "moments": 6924,
      "native": 6925,
      "reported": 6926,
      "Judy": 6927,
      "porno": 6928,
      "McMurphy": 6929,
      "suitcase": 6930,
      "laughs": 6931,
      "sports": 6932,
      "Ruth": 6933,
      "Couple": 6934,
      "Third": 6935,
      "Depends": 6936,
      "whiskey": 6937,
      "Whenever": 6938,
      "wounded": 6939,
      "rotten": 6940,
      "pirate": 6941,
      "lunatic": 6942,
      "Knox": 6943,
      "vampires": 6944,
      "shadow": 6945,
      "Jersey": 6946,
      "Empire": 6947,
      "Seriously": 6948,
      "Israel": 6949,
      "blanket": 6950,
      "April": 6951,
      "Kramer": 6952,
      "Yesterday": 6953,
      "AB": 6954,
      "AD": 6955,
      "Aug": 6956,
      "CAN": 6957,
      "DNA": 6958,
      "Each": 6959,
      "Gab": 6960,
      "Imp": 6961,
      "Kids": 6962,
      "Lind": 6963,
      "Port": 6964,
      "Told": 6965,
      "Vis": 6966,
      "Wyn": 6967,
      "fry": 6968,
      "pimp": 6969,
      "satell": 6970,
      "uated": 6971,
      "anes": 6972,
      "anni": 6973,
      "toler": 6974,
      "heck": 6975,
      "hattan": 6976,
      "limits": 6977,
      "ripped": 6978,
      "welf": 6979,
      "cht": 6980,
      "ablanca": 6981,
      "timing": 6982,
      "demo": 6983,
      "maker": 6984,
      "cave": 6985,
      "timent": 6986,
      "troops": 6987,
      "Gosh": 6988,
      "sons": 6989,
      "tors": 6990,
      "pale": 6991,
      "helluva": 6992,
      "option": 6993,
      "Moscow": 6994,
      "voy": 6995,
      "voices": 6996,
      "choices": 6997,
      "shotgun": 6998,
      "dropping": 6999,
      "volunte": 7000,
      "Guard": 7001,
      "madame": 7002,
      "profile": 7003,
      "buddies": 7004,
      "digging": 7005,
      "Teddy": 7006,
      "Madam": 7007,
      "basis": 7008,
      "advance": 7009,
      "balance": 7010,
      "Casablanca": 7011,
      "complain": 7012,
      "wishes": 7013,
      "micro": 7014,
      "disappointed": 7015,
      "chosen": 7016,
      "scientists": 7017,
      "Doolittle": 7018,
      "integr": 7019,
      "entitled": 7020,
      "AY": 7021,
      "Bis": 7022,
      "Bow": 7023,
      "CT": 7024,
      "Drew": 7025,
      "Mass": 7026,
      "Sea": 7027,
      "Word": 7028,
      "aunt": 7029,
      "cate": 7030,
      "coff": 7031,
      "pages": 7032,
      "rank": 7033,
      "ths": 7034,
      "independ": 7035,
      "envelo": 7036,
      "editor": 7037,
      "outs": 7038,
      "cky": 7039,
      "ooo": 7040,
      "rior": 7041,
      "abs": 7042,
      "neut": 7043,
      "bache": 7044,
      "exha": 7045,
      "yelling": 7046,
      "spray": 7047,
      "Joanna": 7048,
      "phra": 7049,
      "phones": 7050,
      "udes": 7051,
      "steel": 7052,
      "sens": 7053,
      "ggie": 7054,
      "mistaken": 7055,
      "opens": 7056,
      "licate": 7057,
      "Arnold": 7058,
      "Twombley": 7059,
      "confidenti": 7060,
      "collar": 7061,
      "drawn": 7062,
      "offering": 7063,
      "viron": 7064,
      "Trying": 7065,
      "Evelyn": 7066,
      "Simon": 7067,
      "Comrade": 7068,
      "Horse": 7069,
      "Ninotch": 7070,
      "scientist": 7071,
      "Nazi": 7072,
      "twisted": 7073,
      "fabulous": 7074,
      "determin": 7075,
      "Kurtz": 7076,
      "modern": 7077,
      "Valent": 7078,
      "Creasy": 7079,
      "abandoned": 7080,
      "Anthony": 7081,
      "ALL": 7082,
      "Evil": 7083,
      "Seve": 7084,
      "diction": 7085,
      "fond": 7086,
      "gins": 7087,
      "iles": 7088,
      "ov": 7089,
      "toe": 7090,
      "metery": 7091,
      "lege": 7092,
      "behave": 7093,
      "dock": 7094,
      "rifle": 7095,
      "yourselves": 7096,
      "neat": 7097,
      "tact": 7098,
      "unfortunate": 7099,
      "conspir": 7100,
      "tles": 7101,
      "Throw": 7102,
      "rubb": 7103,
      "ishing": 7104,
      "ademy": 7105,
      "cip": 7106,
      "couch": 7107,
      "handled": 7108,
      "options": 7109,
      "nerves": 7110,
      "via": 7111,
      "studying": 7112,
      "drank": 7113,
      "pile": 7114,
      "aval": 7115,
      "Loretta": 7116,
      "Luther": 7117,
      "instant": 7118,
      "Dickson": 7119,
      "Shaw": 7120,
      "jumping": 7121,
      "Warren": 7122,
      "fficient": 7123,
      "Ellen": 7124,
      "column": 7125,
      "GOD": 7126,
      "fantasy": 7127,
      "Murder": 7128,
      "reminds": 7129,
      "pushing": 7130,
      "activ": 7131,
      "identify": 7132,
      "rubber": 7133,
      "Dennis": 7134,
      "Laurie": 7135,
      "Austri": 7136,
      "princess": 7137,
      "kidnapped": 7138,
      "betrayed": 7139,
      "sandwich": 7140,
      "shelter": 7141,
      "individual": 7142,
      "Crawford": 7143,
      "Spanish": 7144,
      "Victoria": 7145,
      "bachelor": 7146,
      "Ninotchka": 7147,
      "Seventy": 7148,
      "23": 7149,
      "?.": 7150,
      "Catch": 7151,
      "Cooper": 7152,
      "Fun": 7153,
      "Full": 7154,
      "Ki": 7155,
      "Nell": 7156,
      "Sulu": 7157,
      "Tech": 7158,
      "gment": 7159,
      "mally": 7160,
      "oath": 7161,
      "pter": 7162,
      "ued": 7163,
      "inj": 7164,
      "atmo": 7165,
      "rever": 7166,
      "toss": 7167,
      "veget": 7168,
      "ardo": 7169,
      "arian": 7170,
      "bec": 7171,
      "hammer": 7172,
      "although": 7173,
      "ooled": 7174,
      "wey": 7175,
      "ading": 7176,
      "role": 7177,
      "homicide": 7178,
      "Hel": 7179,
      "amin": 7180,
      "pean": 7181,
      "delay": 7182,
      "indust": 7183,
      "butcher": 7184,
      "perman": 7185,
      "Doll": 7186,
      "fold": 7187,
      "storage": 7188,
      "prepar": 7189,
      "issues": 7190,
      "acts": 7191,
      "eks": 7192,
      "Dewey": 7193,
      "arks": 7194,
      "gene": 7195,
      "crush": 7196,
      "hearts": 7197,
      "cripple": 7198,
      "pulls": 7199,
      "eval": 7200,
      "rington": 7201,
      "Paine": 7202,
      "dete": 7203,
      "versary": 7204,
      "Quit": 7205,
      "achie": 7206,
      "structure": 7207,
      "necessarily": 7208,
      "Clear": 7209,
      "Erin": 7210,
      "flag": 7211,
      "expenses": 7212,
      "crawling": 7213,
      "narrow": 7214,
      "Vietnam": 7215,
      "technology": 7216,
      "Skipper": 7217,
      "80": 7218,
      "Ball": 7219,
      "Bour": 7220,
      "Beach": 7221,
      "Dil": 7222,
      "Dinner": 7223,
      "Kim": 7224,
      "Mmmm": 7225,
      "OD": 7226,
      "Psy": 7227,
      "Rain": 7228,
      "Took": 7229,
      "Valley": 7230,
      "Win": 7231,
      "Yell": 7232,
      "cart": 7233,
      "dates": 7234,
      "gross": 7235,
      "pad": 7236,
      "shave": 7237,
      "valley": 7238,
      "wins": 7239,
      "relieve": 7240,
      "states": 7241,
      "esis": 7242,
      "advis": 7243,
      "neu": 7244,
      "tips": 7245,
      "hoped": 7246,
      "thers": 7247,
      "lores": 7248,
      "fever": 7249,
      "costu": 7250,
      "defin": 7251,
      "guilt": 7252,
      "shell": 7253,
      "sheet": 7254,
      "faci": 7255,
      "aggress": 7256,
      "ilton": 7257,
      "needn": 7258,
      "selfish": 7259,
      "assy": 7260,
      "Bear": 7261,
      "minist": 7262,
      "monitor": 7263,
      "blank": 7264,
      "rease": 7265,
      "uded": 7266,
      "pier": 7267,
      "Deeds": 7268,
      "shaking": 7269,
      "earned": 7270,
      "Orleans": 7271,
      "Maya": 7272,
      "buildings": 7273,
      "ountain": 7274,
      "campaign": 7275,
      "blows": 7276,
      "response": 7277,
      "purse": 7278,
      "properly": 7279,
      "computers": 7280,
      "suggestion": 7281,
      "songs": 7282,
      "Cuba": 7283,
      "knee": 7284,
      "Strange": 7285,
      "critic": 7286,
      "radiation": 7287,
      "remote": 7288,
      "Nonsense": 7289,
      "Building": 7290,
      "Gentlemen": 7291,
      "Ade": 7292,
      "Bert": 7293,
      "Found": 7294,
      "Ice": 7295,
      "Pas": 7296,
      "Pur": 7297,
      "Pass": 7298,
      "Tower": 7299,
      "aking": 7300,
      "agher": 7301,
      "cter": 7302,
      "cular": 7303,
      "ffe": 7304,
      "fice": 7305,
      "ich": 7306,
      "pals": 7307,
      "zard": 7308,
      "ouch": 7309,
      "resent": 7310,
      "thew": 7311,
      "tower": 7312,
      "orn": 7313,
      "stalk": 7314,
      "chant": 7315,
      "abot": 7316,
      "Them": 7317,
      "timore": 7318,
      "ambit": 7319,
      "tah": 7320,
      "cocks": 7321,
      "sole": 7322,
      "sacred": 7323,
      "entrance": 7324,
      "favour": 7325,
      "Sovi": 7326,
      "mbur": 7327,
      "agency": 7328,
      "acity": 7329,
      "plot": 7330,
      "shoulders": 7331,
      "chess": 7332,
      "forest": 7333,
      "ables": 7334,
      "traged": 7335,
      "Somehow": 7336,
      "disaster": 7337,
      "ferent": 7338,
      "studied": 7339,
      "phoned": 7340,
      "bitter": 7341,
      "Debor": 7342,
      "surgeon": 7343,
      "Taking": 7344,
      "apparently": 7345,
      "singer": 7346,
      "Lebow": 7347,
      "former": 7348,
      "Arch": 7349,
      "charm": 7350,
      "covers": 7351,
      "Manhattan": 7352,
      "deton": 7353,
      "Key": 7354,
      "catching": 7355,
      "offici": 7356,
      "offices": 7357,
      "marrying": 7358,
      "palace": 7359,
      "threaten": 7360,
      "coln": 7361,
      "sealed": 7362,
      "prayer": 7363,
      "practical": 7364,
      "MMMM": 7365,
      "introduced": 7366,
      "Baltimore": 7367,
      "concentrate": 7368,
      "poetry": 7369,
      "merely": 7370,
      "Interest": 7371,
      "commercial": 7372,
      "Sheldrake": 7373,
      "crisis": 7374,
      "temporary": 7375,
      "smarter": 7376,
      "Gallagher": 7377,
      "Lincoln": 7378,
      "Wynant": 7379,
      "exhaust": 7380,
      "Deborah": 7381,
      "Lebowski": 7382,
      "Cold": 7383,
      "Dill": 7384,
      "Fur": 7385,
      "Pho": 7386,
      "bin": 7387,
      "fere": 7388,
      "ji": 7389,
      "jah": 7390,
      "mall": 7391,
      "punk": 7392,
      "ssa": 7393,
      "swore": 7394,
      "uine": 7395,
      "vant": 7396,
      "informed": 7397,
      "ays": 7398,
      "forgetting": 7399,
      "wears": 7400,
      "chill": 7401,
      "cemetery": 7402,
      "rode": 7403,
      "shout": 7404,
      "safer": 7405,
      "elson": 7406,
      "persu": 7407,
      "leaf": 7408,
      "arson": 7409,
      "intended": 7410,
      "sci": 7411,
      "waves": 7412,
      "packing": 7413,
      "disci": 7414,
      "waitress": 7415,
      "vention": 7416,
      "augh": 7417,
      "deals": 7418,
      "sentiment": 7419,
      "prize": 7420,
      "Road": 7421,
      "Bomb": 7422,
      "formation": 7423,
      "fifth": 7424,
      "draft": 7425,
      "subst": 7426,
      "patience": 7427,
      "dressing": 7428,
      "Buy": 7429,
      "explained": 7430,
      "victory": 7431,
      "Genesis": 7432,
      "blah": 7433,
      "listed": 7434,
      "Foley": 7435,
      "Merle": 7436,
      "grip": 7437,
      "complaining": 7438,
      "statue": 7439,
      "Wilson": 7440,
      "sympa": 7441,
      "confirmed": 7442,
      "robbery": 7443,
      "Wonderful": 7444,
      "education": 7445,
      "photographs": 7446,
      "Director": 7447,
      "Preysing": 7448,
      "dramatic": 7449,
      "Agency": 7450,
      "Coffee": 7451,
      "Gun": 7452,
      "Hank": 7453,
      "Kong": 7454,
      "Nancy": 7455,
      "Phy": 7456,
      "Rem": 7457,
      "Sub": 7458,
      "Sky": 7459,
      "Wally": 7460,
      "cet": 7461,
      "ii": 7462,
      "lers": 7463,
      "osa": 7464,
      "wrest": 7465,
      "infect": 7466,
      "stell": 7467,
      "rocket": 7468,
      "tering": 7469,
      "laund": 7470,
      "pest": 7471,
      "guin": 7472,
      "sheep": 7473,
      "conver": 7474,
      "friendship": 7475,
      "shitty": 7476,
      "marked": 7477,
      "tracks": 7478,
      "waitin": 7479,
      "izes": 7480,
      "Seat": 7481,
      "finest": 7482,
      "listened": 7483,
      "sweep": 7484,
      "messages": 7485,
      "interfere": 7486,
      "dinosa": 7487,
      "givin": 7488,
      "zzo": 7489,
      "arrison": 7490,
      "Luc": 7491,
      "Speaking": 7492,
      "archite": 7493,
      "mommy": 7494,
      "Commit": 7495,
      "salad": 7496,
      "boxes": 7497,
      "Corle": 7498,
      "Working": 7499,
      "accepted": 7500,
      "produce": 7501,
      "Mostly": 7502,
      "criminals": 7503,
      "decisions": 7504,
      "arrive": 7505,
      "Daniels": 7506,
      "intellect": 7507,
      "Sooner": 7508,
      "developed": 7509,
      "gamble": 7510,
      "affairs": 7511,
      "vampire": 7512,
      "tastes": 7513,
      "wealth": 7514,
      "mysterious": 7515,
      "clusive": 7516,
      "Friedman": 7517,
      "Science": 7518,
      "500": 7519,
      "Cob": 7520,
      "Drop": 7521,
      "Event": 7522,
      "Gri": 7523,
      "Hills": 7524,
      "IE": 7525,
      "Job": 7526,
      "Kinda": 7527,
      "Shi": 7528,
      "Sna": 7529,
      "Swed": 7530,
      "TE": 7531,
      "Yet": 7532,
      "slo": 7533,
      "tat": 7534,
      "uary": 7535,
      "height": 7536,
      "sector": 7537,
      "environ": 7538,
      "unfair": 7539,
      "unknown": 7540,
      "mod": 7541,
      "poker": 7542,
      "elphia": 7543,
      "backwards": 7544,
      "quir": 7545,
      "episo": 7546,
      "agen": 7547,
      "icks": 7548,
      "fucks": 7549,
      "Through": 7550,
      "cheated": 7551,
      "scam": 7552,
      "coura": 7553,
      "tens": 7554,
      "players": 7555,
      "ladelphia": 7556,
      "Lock": 7557,
      "barrel": 7558,
      "ridge": 7559,
      "covering": 7560,
      "entific": 7561,
      "territory": 7562,
      "Babe": 7563,
      "Scully": 7564,
      "flew": 7565,
      "passage": 7566,
      "spoil": 7567,
      "India": 7568,
      "Living": 7569,
      "Vienna": 7570,
      "Sixty": 7571,
      "connect": 7572,
      "Philadelphia": 7573,
      "slut": 7574,
      "Ruiz": 7575,
      "whisper": 7576,
      "scares": 7577,
      "technical": 7578,
      "Vanessa": 7579,
      "custody": 7580,
      "customer": 7581,
      "Wolf": 7582,
      "results": 7583,
      "cooperate": 7584,
      "lemme": 7585,
      "benefit": 7586,
      "Connell": 7587,
      "challenge": 7588,
      "Rowan": 7589,
      "sheriff": 7590,
      "squeeze": 7591,
      "graphic": 7592,
      "tragedy": 7593,
      "Corleone": 7594,
      "Blow": 7595,
      "Fat": 7596,
      "Ohi": 7597,
      "Space": 7598,
      "Tan": 7599,
      "bend": 7600,
      "gag": 7601,
      "jer": 7602,
      "wow": 7603,
      "zone": 7604,
      "inher": 7605,
      "oni": 7606,
      "tops": 7607,
      "medi": 7608,
      "stir": 7609,
      "veill": 7610,
      "rix": 7611,
      "forbid": 7612,
      "ching": 7613,
      "tale": 7614,
      "uris": 7615,
      "worries": 7616,
      "mph": 7617,
      "Doing": 7618,
      "proposition": 7619,
      "cheating": 7620,
      "mornin": 7621,
      "thrust": 7622,
      "marvelous": 7623,
      "bluff": 7624,
      "disco": 7625,
      "Code": 7626,
      "cleared": 7627,
      "classes": 7628,
      "Frida": 7629,
      "string": 7630,
      "beast": 7631,
      "Wake": 7632,
      "bothers": 7633,
      "entering": 7634,
      "Lila": 7635,
      "busting": 7636,
      "196": 7637,
      "transmission": 7638,
      "Santos": 7639,
      "possess": 7640,
      "conditions": 7641,
      "reception": 7642,
      "potential": 7643,
      "Finally": 7644,
      "slave": 7645,
      "impressive": 7646,
      "Guys": 7647,
      "arrangements": 7648,
      "crawl": 7649,
      "citizens": 7650,
      "urice": 7651,
      "cancel": 7652,
      "Batman": 7653,
      "Barton": 7654,
      "Emily": 7655,
      "August": 7656,
      "atmosphere": 7657,
      "Pac": 7658,
      "Sl": 7659,
      "Saw": 7660,
      "Tow": 7661,
      "Tere": 7662,
      "bru": 7663,
      "eli": 7664,
      "econ": 7665,
      "hay": 7666,
      "ibly": 7667,
      "zes": 7668,
      "rele": 7669,
      "towel": 7670,
      "ora": 7671,
      "orange": 7672,
      "admir": 7673,
      "Western": 7674,
      "coordin": 7675,
      "socks": 7676,
      "faction": 7677,
      "agers": 7678,
      "morgue": 7679,
      "Bee": 7680,
      "musta": 7681,
      "silence": 7682,
      "kiddin": 7683,
      "whip": 7684,
      "tension": 7685,
      "vian": 7686,
      "retard": 7687,
      "shocked": 7688,
      "Alone": 7689,
      "Negative": 7690,
      "chamber": 7691,
      "possibilities": 7692,
      "ctives": 7693,
      "interrup": 7694,
      "election": 7695,
      "Afraid": 7696,
      "collea": 7697,
      "laughed": 7698,
      "similar": 7699,
      "operate": 7700,
      "kicking": 7701,
      "enjoying": 7702,
      "explos": 7703,
      "visiting": 7704,
      "refused": 7705,
      "ificent": 7706,
      "ronic": 7707,
      "advise": 7708,
      "weakness": 7709,
      "concerns": 7710,
      "DAY": 7711,
      "convention": 7712,
      "Mulder": 7713,
      "reservation": 7714,
      "shields": 7715,
      "traveling": 7716,
      "Venice": 7717,
      "candid": 7718,
      "HAVE": 7719,
      "relatives": 7720,
      "diamonds": 7721,
      "sacrifice": 7722,
      "destruction": 7723,
      "corporate": 7724,
      "requires": 7725,
      "deaf": 7726,
      "veillance": 7727,
      "AID": 7728,
      "Band": 7729,
      "Bren": 7730,
      "Break": 7731,
      "Dway": 7732,
      "Oc": 7733,
      "Pot": 7734,
      "Pic": 7735,
      "Umm": 7736,
      "Yan": 7737,
      "Zu": 7738,
      "aled": 7739,
      "candy": 7740,
      "darn": 7741,
      "hunch": 7742,
      "rd": 7743,
      "eras": 7744,
      "iture": 7745,
      "heli": 7746,
      "begun": 7747,
      "havin": 7748,
      "utton": 7749,
      "absur": 7750,
      "highest": 7751,
      "Weir": 7752,
      "unconscious": 7753,
      "decor": 7754,
      "max": 7755,
      "geons": 7756,
      "icy": 7757,
      "pps": 7758,
      "Yessir": 7759,
      "faint": 7760,
      "essler": 7761,
      "ously": 7762,
      "plor": 7763,
      "plates": 7764,
      "cheat": 7765,
      "helpful": 7766,
      "impulse": 7767,
      "steam": 7768,
      "Def": 7769,
      "driven": 7770,
      "awk": 7771,
      "eats": 7772,
      "syn": 7773,
      "fights": 7774,
      "Bridge": 7775,
      "crank": 7776,
      "corp": 7777,
      "strain": 7778,
      "zzle": 7779,
      "winner": 7780,
      "incere": 7781,
      "fools": 7782,
      "larger": 7783,
      "laying": 7784,
      "budget": 7785,
      "doubts": 7786,
      "deliber": 7787,
      "publicity": 7788,
      "Saavi": 7789,
      "Kenny": 7790,
      "hostage": 7791,
      "hostile": 7792,
      "Geez": 7793,
      "Leonard": 7794,
      "harmless": 7795,
      "gorgeous": 7796,
      "diamond": 7797,
      "culture": 7798,
      "privilege": 7799,
      "Suzie": 7800,
      "clinic": 7801,
      "institution": 7802,
      "assault": 7803,
      "phrase": 7804,
      "Interesting": 7805,
      "Ohio": 7806,
      "Teresa": 7807,
      "Dwayne": 7808,
      "Saavik": 7809,
      "200": 7810,
      "Bi": 7811,
      "Ban": 7812,
      "Cot": 7813,
      "Dyle": 7814,
      "Fats": 7815,
      "Lily": 7816,
      "Nam": 7817,
      "Ouch": 7818,
      "Sn": 7819,
      "Stick": 7820,
      "Tat": 7821,
      "Utah": 7822,
      "Wat": 7823,
      "bour": 7824,
      "bike": 7825,
      "ec": 7826,
      "gle": 7827,
      "jus": 7828,
      "lished": 7829,
      "ored": 7830,
      "pud": 7831,
      "tab": 7832,
      "zlo": 7833,
      "thirsty": 7834,
      "inti": 7835,
      "attemp": 7836,
      "require": 7837,
      "lled": 7838,
      "ingo": 7839,
      "orbit": 7840,
      "stare": 7841,
      "owed": 7842,
      "sele": 7843,
      "rican": 7844,
      "Weather": 7845,
      "loaf": 7846,
      "tem": 7847,
      "lawn": 7848,
      "deer": 7849,
      "poly": 7850,
      "gum": 7851,
      "contr": 7852,
      "werewolf": 7853,
      "propose": 7854,
      "assu": 7855,
      "reads": 7856,
      "Inside": 7857,
      "runnin": 7858,
      "Coy": 7859,
      "yacht": 7860,
      "businessman": 7861,
      "Explain": 7862,
      "genuine": 7863,
      "News": 7864,
      "lined": 7865,
      "horn": 7866,
      "brace": 7867,
      "eleph": 7868,
      "hairy": 7869,
      "leaders": 7870,
      "Samuel": 7871,
      "Norma": 7872,
      "burst": 7873,
      "distin": 7874,
      "attached": 7875,
      "susp": 7876,
      "starving": 7877,
      "invitation": 7878,
      "engines": 7879,
      "protected": 7880,
      "Morgan": 7881,
      "maintain": 7882,
      "approve": 7883,
      "motion": 7884,
      "colm": 7885,
      "grim": 7886,
      "basically": 7887,
      "counselor": 7888,
      "experienced": 7889,
      "transp": 7890,
      "regul": 7891,
      "activity": 7892,
      "cocktail": 7893,
      "graduate": 7894,
      "emotion": 7895,
      "emotions": 7896,
      "wasted": 7897,
      "combat": 7898,
      "dedic": 7899,
      "religion": 7900,
      "phew": 7901,
      "lobby": 7902,
      "transferred": 7903,
      "ambul": 7904,
      "violation": 7905,
      "random": 7906,
      "Malcolm": 7907,
      "Bernstein": 7908,
      "Houston": 7909,
      "receipt": 7910,
      "Violet": 7911,
      "wagon": 7912,
      "consequences": 7913,
      "escort": 7914,
      "Different": 7915,
      "furniture": 7916,
      "envelope": 7917,
      "35": 7918,
      "Bree": 7919,
      "Clo": 7920,
      "Double": 7921,
      "Gay": 7922,
      "Kend": 7923,
      "Main": 7924,
      "Press": 7925,
      "Sme": 7926,
      "Spen": 7927,
      "Town": 7928,
      "ale": 7929,
      "bent": 7930,
      "pon": 7931,
      "site": 7932,
      "ugs": 7933,
      "wrap": 7934,
      "anno": 7935,
      "meters": 7936,
      "het": 7937,
      "envy": 7938,
      "hambur": 7939,
      "utch": 7940,
      "ooch": 7941,
      "riosity": 7942,
      "fork": 7943,
      "anytime": 7944,
      "exhibit": 7945,
      "Donnie": 7946,
      "happily": 7947,
      "scal": 7948,
      "minate": 7949,
      "Instead": 7950,
      "silent": 7951,
      "Record": 7952,
      "afterwards": 7953,
      "Mack": 7954,
      "Stupid": 7955,
      "Cos": 7956,
      "ella": 7957,
      "phan": 7958,
      "beings": 7959,
      "Neo": 7960,
      "Animal": 7961,
      "paras": 7962,
      "!!!!": 7963,
      "desp": 7964,
      "rence": 7965,
      "serving": 7966,
      "Brandon": 7967,
      "troubles": 7968,
      "penis": 7969,
      "effe": 7970,
      "berg": 7971,
      "Frankly": 7972,
      "erald": 7973,
      "freeze": 7974,
      "graphy": 7975,
      "Peggy": 7976,
      "Pack": 7977,
      "speaks": 7978,
      "Thomp": 7979,
      "fairy": 7980,
      "pedo": 7981,
      "muscle": 7982,
      "involve": 7983,
      "McCoy": 7984,
      "creative": 7985,
      "turkey": 7986,
      "dentist": 7987,
      "colors": 7988,
      "Feds": 7989,
      "feeding": 7990,
      "Goddamnit": 7991,
      "scheme": 7992,
      "violin": 7993,
      "survived": 7994,
      "combination": 7995,
      "competition": 7996,
      "confirm": 7997,
      "slightest": 7998,
      "servant": 7999,
      "fashioned": 8000,
      "Kubeli": 8001,
      "SOME": 8002,
      "Mallory": 8003,
      "engagement": 8004,
      "Nurse": 8005,
      "determined": 8006,
      "Yellow": 8007,
      "AIDS": 8008,
      "Kubelik": 8009,
      "70": 8010,
      "Apple": 8011,
      "Bout": 8012,
      "Bir": 8013,
      "Boom": 8014,
      "Chim": 8015,
      "Chair": 8016,
      "Dud": 8017,
      "Dix": 8018,
      "Fight": 8019,
      "Garrison": 8020,
      "Hallow": 8021,
      "Kyle": 8022,
      "Mot": 8023,
      "NT": 8024,
      "Ner": 8025,
      "Swi": 8026,
      "Usu": 8027,
      "Wiz": 8028,
      "cist": 8029,
      "dive": 8030,
      "mam": 8031,
      "muck": 8032,
      "nan": 8033,
      "rome": 8034,
      "ít": 8035,
      "insp": 8036,
      "reme": 8037,
      "removed": 8038,
      "seats": 8039,
      "severe": 8040,
      "leon": 8041,
      "livin": 8042,
      "etic": 8043,
      "wicked": 8044,
      "neath": 8045,
      "nephew": 8046,
      "ira": 8047,
      "mode": 8048,
      "raz": 8049,
      "illusion": 8050,
      "mack": 8051,
      "bait": 8052,
      "exped": 8053,
      "plat": 8054,
      "ideal": 8055,
      "comic": 8056,
      "cia": 8057,
      "homes": 8058,
      "disks": 8059,
      "bush": 8060,
      "Colle": 8061,
      "compass": 8062,
      "Marquis": 8063,
      "Deal": 8064,
      "surveillance": 8065,
      "applic": 8066,
      "mitive": 8067,
      "franc": 8068,
      "berry": 8069,
      "hhhh": 8070,
      "cali": 8071,
      "Class": 8072,
      "onymous": 8073,
      "burgh": 8074,
      "fields": 8075,
      "batter": 8076,
      "dale": 8077,
      "telegram": 8078,
      "Indians": 8079,
      "prisoners": 8080,
      "accounts": 8081,
      "Champ": 8082,
      "excite": 8083,
      "Merrick": 8084,
      "peaceful": 8085,
      "forcement": 8086,
      "professor": 8087,
      "succeed": 8088,
      "cooking": 8089,
      "firing": 8090,
      "Burke": 8091,
      "locate": 8092,
      "stitution": 8093,
      "whack": 8094,
      "borrowed": 8095,
      "disturbed": 8096,
      "civilization": 8097,
      "Objection": 8098,
      "adopt": 8099,
      "communications": 8100,
      "pheus": 8101,
      "celebrate": 8102,
      "Smart": 8103,
      "creeps": 8104,
      "conduct": 8105,
      "liquid": 8106,
      "entertainment": 8107,
      "Stacy": 8108,
      "temperature": 8109,
      "widow": 8110,
      "certific": 8111,
      "Montana": 8112,
      "Pierce": 8113,
      "establish": 8114,
      "Krueger": 8115,
      "Clarice": 8116,
      "anniversary": 8117,
      "laundry": 8118,
      "Thompson": 8119,
      "Cry": 8120,
      "Edu": 8121,
      "Epps": 8122,
      "FE": 8123,
      "Hob": 8124,
      "Ire": 8125,
      "Jedi": 8126,
      "Kring": 8127,
      "PM": 8128,
      "Pig": 8129,
      "Spr": 8130,
      "Sell": 8131,
      "Went": 8132,
      "Whit": 8133,
      "bou": 8134,
      "dess": 8135,
      "dign": 8136,
      "gloves": 8137,
      "hone": 8138,
      "risten": 8139,
      "rating": 8140,
      "rounds": 8141,
      "swit": 8142,
      "rection": 8143,
      "itan": 8144,
      "haun": 8145,
      "limb": 8146,
      "ettes": 8147,
      "riz": 8148,
      "weigh": 8149,
      "wired": 8150,
      "chart": 8151,
      "adise": 8152,
      "abuse": 8153,
      "math": 8154,
      "pless": 8155,
      "bacco": 8156,
      "ulting": 8157,
      "quote": 8158,
      "presume": 8159,
      "scent": 8160,
      "Josie": 8161,
      "tense": 8162,
      "dishes": 8163,
      "Mach": 8164,
      "Jaco": 8165,
      "compens": 8166,
      "pected": 8167,
      "meetings": 8168,
      "parked": 8169,
      "missiles": 8170,
      "speci": 8171,
      "Marie": 8172,
      "Demo": 8173,
      "ketch": 8174,
      "services": 8175,
      "Franklin": 8176,
      "Pope": 8177,
      "sorts": 8178,
      "tested": 8179,
      "Luthor": 8180,
      "floating": 8181,
      "capacity": 8182,
      "McKen": 8183,
      "Bloom": 8184,
      "casual": 8185,
      "cattle": 8186,
      "searching": 8187,
      "chicks": 8188,
      "discussed": 8189,
      "Fox": 8190,
      "cigar": 8191,
      "Russians": 8192,
      "extraordinary": 8193,
      "potato": 8194,
      "waters": 8195,
      "Murray": 8196,
      "taxes": 8197,
      "Wheel": 8198,
      "guessed": 8199,
      "Melanie": 8200,
      "Laszlo": 8201,
      "jewels": 8202,
      "terrorists": 8203,
      "Honestly": 8204,
      "Knock": 8205,
      "expression": 8206,
      "Wallace": 8207,
      "channel": 8208,
      "Family": 8209,
      "fascinating": 8210,
      "scientific": 8211,
      "Seattle": 8212,
      "absurd": 8213,
      "effective": 8214,
      "Halloween": 8215,
      "College": 8216,
      "Ash": 8217,
      "Cher": 8218,
      "During": 8219,
      "EX": 8220,
      "Jere": 8221,
      "PG": 8222,
      "Randy": 8223,
      "Silver": 8224,
      "Till": 8225,
      "UST": 8226,
      "Wal": 8227,
      "aes": 8228,
      "bers": 8229,
      "fooled": 8230,
      "knight": 8231,
      "rhy": 8232,
      "ske": 8233,
      "skill": 8234,
      "error": 8235,
      "isy": 8236,
      "seal": 8237,
      "hack": 8238,
      "esome": 8239,
      "lick": 8240,
      "aller": 8241,
      "ooze": 8242,
      "goal": 8243,
      "rag": 8244,
      "peare": 8245,
      "sailing": 8246,
      "gee": 8247,
      "guide": 8248,
      "whores": 8249,
      "exagger": 8250,
      "tools": 8251,
      "types": 8252,
      "workers": 8253,
      "prov": 8254,
      "acid": 8255,
      "obsessed": 8256,
      "suite": 8257,
      "torpedo": 8258,
      "carpet": 8259,
      "Toto": 8260,
      "Joel": 8261,
      "kespeare": 8262,
      "filed": 8263,
      "playin": 8264,
      "greater": 8265,
      "Moon": 8266,
      "Moss": 8267,
      "Shh": 8268,
      "uming": 8269,
      "shove": 8270,
      "Although": 8271,
      "questioning": 8272,
      "Maranz": 8273,
      "smiling": 8274,
      "Lecter": 8275,
      "differently": 8276,
      "sends": 8277,
      "Carpenter": 8278,
      "detect": 8279,
      "Mayo": 8280,
      "dresser": 8281,
      "Rico": 8282,
      "legend": 8283,
      "unique": 8284,
      "Correct": 8285,
      "Shakespeare": 8286,
      "Morpheus": 8287,
      "circuit": 8288,
      "spirits": 8289,
      "Freder": 8290,
      "sucked": 8291,
      "deserved": 8292,
      "programmed": 8293,
      "nurses": 8294,
      "chips": 8295,
      "fantas": 8296,
      "actors": 8297,
      "include": 8298,
      "incredibly": 8299,
      "Ronnie": 8300,
      "granted": 8301,
      "Falls": 8302,
      "rumors": 8303,
      "Castle": 8304,
      "prospect": 8305,
      "symbol": 8306,
      "Gabri": 8307,
      "conspiracy": 8308,
      "helicop": 8309,
      "Dudley": 8310,
      "Brea": 8311,
      "Ev": 8312,
      "Flyn": 8313,
      "Ganz": 8314,
      "Kling": 8315,
      "Les": 8316,
      "Spar": 8317,
      "Sire": 8318,
      "Tal": 8319,
      "Zo": 8320,
      "aire": 8321,
      "barn": 8322,
      "cried": 8323,
      "dup": 8324,
      "junior": 8325,
      "mist": 8326,
      "sincere": 8327,
      "yon": 8328,
      "thal": 8329,
      "thus": 8330,
      "towards": 8331,
      "aroo": 8332,
      "lean": 8333,
      "alike": 8334,
      "alert": 8335,
      "weir": 8336,
      "inky": 8337,
      "mos": 8338,
      "modest": 8339,
      "rack": 8340,
      "coma": 8341,
      "soda": 8342,
      "deeper": 8343,
      "naive": 8344,
      "poem": 8345,
      "gua": 8346,
      "concl": 8347,
      "fax": 8348,
      "ulated": 8349,
      "bodyguard": 8350,
      "Inn": 8351,
      "Information": 8352,
      "Chan": 8353,
      "Rey": 8354,
      "realistic": 8355,
      "Jody": 8356,
      "tennis": 8357,
      "display": 8358,
      "discover": 8359,
      "handling": 8360,
      "damaged": 8361,
      "nerable": 8362,
      "Shot": 8363,
      "clerk": 8364,
      "Martha": 8365,
      "Ross": 8366,
      "chased": 8367,
      "hopeless": 8368,
      "Bron": 8369,
      "Lost": 8370,
      "closely": 8371,
      "highway": 8372,
      "internal": 8373,
      "Carlos": 8374,
      "elein": 8375,
      "safely": 8376,
      "Ripper": 8377,
      "ounced": 8378,
      "July": 8379,
      "presents": 8380,
      "operations": 8381,
      "royal": 8382,
      "entered": 8383,
      "Raymond": 8384,
      "strictly": 8385,
      "tables": 8386,
      "defensive": 8387,
      "screwing": 8388,
      "Schwart": 8389,
      "Ruby": 8390,
      "jazz": 8391,
      "photos": 8392,
      "Deputy": 8393,
      "ificant": 8394,
      "puke": 8395,
      "Hardly": 8396,
      "Crane": 8397,
      "Comput": 8398,
      "explosion": 8399,
      "nigga": 8400,
      "Japan": 8401,
      "kov": 8402,
      "Matthew": 8403,
      "accomplish": 8404,
      "Contin": 8405,
      ".\"\"\"": 8406,
      "Alfred": 8407,
      "surrounded": 8408,
      "Pitts": 8409,
      "independent": 8410,
      "Valentine": 8411,
      "Committee": 8412,
      "urisdiction": 8413,
      "contrary": 8414,
      "assumed": 8415,
      "Kringelein": 8416,
      "McKenna": 8417,
      "Schwartz": 8418,
      "99": 8419,
      "Bones": 8420,
      "Card": 8421,
      "Crow": 8422,
      "Dist": 8423,
      "EP": 8424,
      "Es": 8425,
      "Egy": 8426,
      "Gone": 8427,
      "MI": 8428,
      "Napo": 8429,
      "Rest": 8430,
      "SI": 8431,
      "Sic": 8432,
      "Tough": 8433,
      "Walt": 8434,
      "fart": 8435,
      "nit": 8436,
      "num": 8437,
      "pies": 8438,
      "pical": 8439,
      "rats": 8440,
      "inna": 8441,
      "recover": 8442,
      "thed": 8443,
      "toes": 8444,
      "seed": 8445,
      "arrog": 8446,
      "beans": 8447,
      "andal": 8448,
      "wee": 8449,
      "wig": 8450,
      "chop": 8451,
      "Thea": 8452,
      "cannon": 8453,
      "unbelievable": 8454,
      "coach": 8455,
      "pops": 8456,
      "condo": 8457,
      "quet": 8458,
      "spark": 8459,
      "icked": 8460,
      "proto": 8461,
      "aces": 8462,
      "leak": 8463,
      "callin": 8464,
      "bets": 8465,
      "chester": 8466,
      "diet": 8467,
      "grat": 8468,
      "Canada": 8469,
      "fiance": 8470,
      "Making": 8471,
      "mmmm": 8472,
      "Sebast": 8473,
      "drian": 8474,
      "drift": 8475,
      "warp": 8476,
      "airline": 8477,
      "smugg": 8478,
      "picks": 8479,
      "halfway": 8480,
      "Attorney": 8481,
      "skip": 8482,
      "closest": 8483,
      "Point": 8484,
      "Edgar": 8485,
      "dragged": 8486,
      "subway": 8487,
      "appeal": 8488,
      "beaten": 8489,
      "fooling": 8490,
      "cameras": 8491,
      "alternative": 8492,
      "ANT": 8493,
      "drum": 8494,
      "Enjoy": 8495,
      "palm": 8496,
      "vanced": 8497,
      "Hawa": 8498,
      "Outside": 8499,
      "filling": 8500,
      "Schu": 8501,
      "motive": 8502,
      "vacy": 8503,
      "hostages": 8504,
      "recognized": 8505,
      "fingerprints": 8506,
      "halluc": 8507,
      "suffered": 8508,
      "grabbed": 8509,
      "slap": 8510,
      "Maggie": 8511,
      "satisfy": 8512,
      "DAM": 8513,
      "SHIT": 8514,
      "Raoul": 8515,
      "magazines": 8516,
      "stinks": 8517,
      "Fergus": 8518,
      "laser": 8519,
      "slightly": 8520,
      "negotiate": 8521,
      "oblig": 8522,
      "Burns": 8523,
      "Holland": 8524,
      "Misery": 8525,
      "philosophy": 8526,
      "Terrific": 8527,
      "faggot": 8528,
      "Amazing": 8529,
      "satellite": 8530,
      "Adele": 8531,
      "relevant": 8532,
      "Maranzano": 8533,
      "Frederick": 8534,
      "Sebastian": 8535,
      "48": 8536,
      "55": 8537,
      "Ant": 8538,
      "Alp": 8539,
      "Banks": 8540,
      "Ci": 8541,
      "Cze": 8542,
      "DID": 8543,
      "Emb": 8544,
      "Isa": 8545,
      "Iris": 8546,
      "OH": 8547,
      "Puff": 8548,
      "Tut": 8549,
      "Vaugh": 8550,
      "WN": 8551,
      "WIT": 8552,
      "Yu": 8553,
      "bureau": 8554,
      "cities": 8555,
      "fea": 8556,
      "jurisdiction": 8557,
      "rison": 8558,
      "sane": 8559,
      "uals": 8560,
      "vage": 8561,
      "vast": 8562,
      "zi": 8563,
      "youth": 8564,
      "reverse": 8565,
      "isol": 8566,
      "itar": 8567,
      "stunt": 8568,
      "vet": 8569,
      "asion": 8570,
      "haw": 8571,
      "alie": 8572,
      "ghters": 8573,
      "cans": 8574,
      "tack": 8575,
      "pear": 8576,
      "worms": 8577,
      "geo": 8578,
      "entry": 8579,
      "happier": 8580,
      "plague": 8581,
      "division": 8582,
      "sittin": 8583,
      "understands": 8584,
      "handy": 8585,
      "opposed": 8586,
      "bits": 8587,
      "Shang": 8588,
      "clar": 8589,
      "Alban": 8590,
      "cuts": 8591,
      "latest": 8592,
      "Bobo": 8593,
      "apply": 8594,
      "formal": 8595,
      "magnet": 8596,
      "Brady": 8597,
      "frust": 8598,
      "penet": 8599,
      "charity": 8600,
      "interrog": 8601,
      "straw": 8602,
      "History": 8603,
      "Gram": 8604,
      "musical": 8605,
      "burden": 8606,
      "distress": 8607,
      "Milo": 8608,
      "honored": 8609,
      "spoiled": 8610,
      "unex": 8611,
      "salt": 8612,
      "Liber": 8613,
      "gym": 8614,
      "transmit": 8615,
      "deeply": 8616,
      "Nik": 8617,
      "physics": 8618,
      "gifts": 8619,
      "levels": 8620,
      "whistle": 8621,
      "WHO": 8622,
      "pigs": 8623,
      "tube": 8624,
      "nickel": 8625,
      "Eleven": 8626,
      "FUCKING": 8627,
      "Swann": 8628,
      "sharks": 8629,
      "puppet": 8630,
      "Gib": 8631,
      "debt": 8632,
      "Turk": 8633,
      "Nazis": 8634,
      "associate": 8635,
      "nolds": 8636,
      "published": 8637,
      "registered": 8638,
      "ceremony": 8639,
      "Totally": 8640,
      "CONT": 8641,
      "Fletch": 8642,
      "Juno": 8643,
      "injured": 8644,
      "peanut": 8645,
      "tattoo": 8646,
      "ambulance": 8647,
      "Usually": 8648,
      "Wizard": 8649,
      "francs": 8650,
      "specimen": 8651,
      "Reynolds": 8652,
      "Napoleon": 8653,
      "!--": 8654,
      "90": 8655,
      "Cir": 8656,
      "Cru": 8657,
      "Candy": 8658,
      "Dream": 8659,
      "Fol": 8660,
      "Il": 8661,
      "LY": 8662,
      "Less": 8663,
      "Ot": 8664,
      "Sou": 8665,
      "TI": 8666,
      "TER": 8667,
      "Und": 8668,
      "Whis": 8669,
      "WAS": 8670,
      "Whoo": 8671,
      "boom": 8672,
      "bonds": 8673,
      "cident": 8674,
      "cured": 8675,
      "diss": 8676,
      "gren": 8677,
      "iro": 8678,
      "nity": 8679,
      "nically": 8680,
      "rus": 8681,
      "sins": 8682,
      "sses": 8683,
      "sworn": 8684,
      "task": 8685,
      "rein": 8686,
      "reject": 8687,
      "sted": 8688,
      "stamps": 8689,
      "length": 8690,
      "eno": 8691,
      "utes": 8692,
      "cktor": 8693,
      "chin": 8694,
      "absolute": 8695,
      "units": 8696,
      "lovers": 8697,
      "text": 8698,
      "nailed": 8699,
      "eland": 8700,
      "igan": 8701,
      "quer": 8702,
      "aghet": 8703,
      "causes": 8704,
      "Thou": 8705,
      "mentally": 8706,
      "gray": 8707,
      "sible": 8708,
      "clothing": 8709,
      "waits": 8710,
      "Molly": 8711,
      "pointing": 8712,
      "dug": 8713,
      "missions": 8714,
      "Deep": 8715,
      "primitive": 8716,
      "privacy": 8717,
      "drivin": 8718,
      "ubli": 8719,
      "nuff": 8720,
      "Lewis": 8721,
      "Lecktor": 8722,
      "promises": 8723,
      "coron": 8724,
      "pension": 8725,
      "buys": 8726,
      "accused": 8727,
      "solved": 8728,
      "Grou": 8729,
      "INU": 8730,
      "goddamnit": 8731,
      "humans": 8732,
      "straighten": 8733,
      "smaller": 8734,
      "risks": 8735,
      "cellency": 8736,
      "sticking": 8737,
      "blowing": 8738,
      "feller": 8739,
      "Maxie": 8740,
      "rolls": 8741,
      "THERE": 8742,
      "daily": 8743,
      "knocking": 8744,
      "juana": 8745,
      "Vivian": 8746,
      "Scotch": 8747,
      "nesota": 8748,
      "network": 8749,
      "suspected": 8750,
      "investigating": 8751,
      "Minnesota": 8752,
      "electro": 8753,
      "Tripp": 8754,
      "beneath": 8755,
      "System": 8756,
      "wheels": 8757,
      "wisdom": 8758,
      "Josephine": 8759,
      "executive": 8760,
      "limited": 8761,
      "trailer": 8762,
      "assassin": 8763,
      "Bourne": 8764,
      "officially": 8765,
      "excitement": 8766,
      "Democr": 8767,
      ">--": 8768,
      "Bang": 8769,
      "Cind": 8770,
      "Cash": 8771,
      "Dante": 8772,
      "Fro": 8773,
      "GA": 8774,
      "Hoo": 8775,
      "Hah": 8776,
      "Kip": 8777,
      "Kristen": 8778,
      "Lilly": 8779,
      "Mob": 8780,
      "Rid": 8781,
      "Ral": 8782,
      "Sound": 8783,
      "Wish": 8784,
      "WILL": 8785,
      "Yeh": 8786,
      "dim": 8787,
      "equal": 8788,
      "lat": 8789,
      "loo": 8790,
      "mou": 8791,
      "obey": 8792,
      "uum": 8793,
      "vig": 8794,
      "wy": 8795,
      "wounds": 8796,
      "ymour": 8797,
      "itated": 8798,
      "lee": 8799,
      "bee": 8800,
      "cep": 8801,
      "Heard": 8802,
      "usions": 8803,
      "bolt": 8804,
      "sauce": 8805,
      "manif": 8806,
      "hyster": 8807,
      "poses": 8808,
      "ppi": 8809,
      "dynam": 8810,
      "exclusive": 8811,
      "qua": 8812,
      "ained": 8813,
      "Dog": 8814,
      "Dolores": 8815,
      "fog": 8816,
      "aph": 8817,
      "Reggie": 8818,
      "matches": 8819,
      "dison": 8820,
      "ansky": 8821,
      "Stri": 8822,
      "Coast": 8823,
      "bitches": 8824,
      "Seymour": 8825,
      "personnel": 8826,
      "drowned": 8827,
      "drives": 8828,
      "landing": 8829,
      "misery": 8830,
      "Boone": 8831,
      "vors": 8832,
      "crimes": 8833,
      "drops": 8834,
      "Possi": 8835,
      "Caro": 8836,
      "Carla": 8837,
      "follows": 8838,
      "curiosity": 8839,
      "submit": 8840,
      "patrol": 8841,
      "shuttle": 8842,
      "clip": 8843,
      "gesture": 8844,
      "madman": 8845,
      "attacks": 8846,
      "porters": 8847,
      "Dammit": 8848,
      "souls": 8849,
      "strikes": 8850,
      "Monica": 8851,
      "Moraes": 8852,
      "discussing": 8853,
      "Bernie": 8854,
      "actions": 8855,
      "heroin": 8856,
      "heroes": 8857,
      "judgment": 8858,
      "production": 8859,
      "bombs": 8860,
      "panties": 8861,
      "spotted": 8862,
      "Simple": 8863,
      "hooker": 8864,
      "Grandpa": 8865,
      "generally": 8866,
      "Vernon": 8867,
      "pockets": 8868,
      "aaaa": 8869,
      "planted": 8870,
      "whales": 8871,
      "description": 8872,
      "Century": 8873,
      "habits": 8874,
      "Girls": 8875,
      "Owen": 8876,
      "Report": 8877,
      "Treves": 8878,
      "Square": 8879,
      "analysis": 8880,
      "Music": 8881,
      "Secretary": 8882,
      "Skip": 8883,
      "literally": 8884,
      "improve": 8885,
      "instinct": 8886,
      "preacher": 8887,
      "Straight": 8888,
      "precisely": 8889,
      "neutral": 8890,
      "industry": 8891,
      "aggressive": 8892,
      "coordinates": 8893,
      "deliberately": 8894,
      "pudding": 8895,
      "Records": 8896,
      "CONTINU": 8897,
      "aghetti": 8898,
      "47": 8899,
      ">...?": 8900,
      "Ado": 8901,
      "Bust": 8902,
      "Bian": 8903,
      "Center": 8904,
      "Gro": 8905,
      "HIM": 8906,
      "Page": 8907,
      "Pike": 8908,
      "Sti": 8909,
      "Sign": 8910,
      "Sport": 8911,
      "Tw": 8912,
      "VI": 8913,
      "Vol": 8914,
      "aked": 8915,
      "bul": 8916,
      "dummy": 8917,
      "ego": 8918,
      "foul": 8919,
      "gage": 8920,
      "gast": 8921,
      "slice": 8922,
      "skills": 8923,
      "uries": 8924,
      "wald": 8925,
      "ys": 8926,
      "zon": 8927,
      "thie": 8928,
      "recon": 8929,
      "hesit": 8930,
      "ories": 8931,
      "arrow": 8932,
      "leopard": 8933,
      "behalf": 8934,
      "oooo": 8935,
      "wipe": 8936,
      "goof": 8937,
      "amo": 8938,
      "amate": 8939,
      "lope": 8940,
      "feature": 8941,
      "causing": 8942,
      "explor": 8943,
      "consu": 8944,
      "contra": 8945,
      "comedy": 8946,
      "daylight": 8947,
      "Sol": 8948,
      "proved": 8949,
      "proposed": 8950,
      "plants": 8951,
      "lette": 8952,
      "comment": 8953,
      "obser": 8954,
      "obsession": 8955,
      "plains": 8956,
      "underneath": 8957,
      "scout": 8958,
      "item": 8959,
      "minister": 8960,
      "torn": 8961,
      "coupla": 8962,
      "trau": 8963,
      "superior": 8964,
      "mato": 8965,
      "mative": 8966,
      "disgu": 8967,
      "phine": 8968,
      "compre": 8969,
      "mothers": 8970,
      "worlds": 8971,
      "Annette": 8972,
      "parti": 8973,
      "walkin": 8974,
      "cycle": 8975,
      "international": 8976,
      "content": 8977,
      "recru": 8978,
      "gravity": 8979,
      "daughters": 8980,
      "normally": 8981,
      "Sammy": 8982,
      "sells": 8983,
      "roads": 8984,
      "concert": 8985,
      "Boyd": 8986,
      "ckett": 8987,
      "Least": 8988,
      "198": 8989,
      "quietly": 8990,
      "sucking": 8991,
      "deserves": 8992,
      "apology": 8993,
      "settlement": 8994,
      "clubs": 8995,
      "Nicho": 8996,
      "queer": 8997,
      "physically": 8998,
      "directions": 8999,
      "punished": 9000,
      "booze": 9001,
      "announce": 9002,
      "Davis": 9003,
      "Elect": 9004,
      "sorta": 9005,
      "gambling": 9006,
      "civilian": 9007,
      "imeter": 9008,
      "OFF": 9009,
      "debate": 9010,
      "insulted": 9011,
      "documents": 9012,
      "Figured": 9013,
      "disturbance": 9014,
      "Metro": 9015,
      "Personally": 9016,
      "legitimate": 9017,
      "coffin": 9018,
      "Cobb": 9019,
      "Snoop": 9020,
      "Chimera": 9021,
      "razor": 9022,
      "!'": 9023,
      "*.": 9024,
      "Ace": 9025,
      "Bed": 9026,
      "Cly": 9027,
      "Erica": 9028,
      "Flo": 9029,
      "Hop": 9030,
      "Ike": 9031,
      "Keat": 9032,
      "Luck": 9033,
      "Round": 9034,
      "Rio": 9035,
      "Tha": 9036,
      "Winst": 9037,
      "Zone": 9038,
      "fume": 9039,
      "gru": 9040,
      "hound": 9041,
      "ires": 9042,
      "knot": 9043,
      "rational": 9044,
      "tanks": 9045,
      "ui": 9046,
      "var": 9047,
      "wad": 9048,
      "xim": 9049,
      "ís": 9050,
      "inity": 9051,
      "erce": 9052,
      "anonymous": 9053,
      "thead": 9054,
      "llie": 9055,
      "aron": 9056,
      "enstein": 9057,
      "lion": 9058,
      "Whatcha": 9059,
      "abandon": 9060,
      "gosh": 9061,
      "homa": 9062,
      "upper": 9063,
      "tagn": 9064,
      "eager": 9065,
      "codes": 9066,
      "illac": 9067,
      "shred": 9068,
      "lace": 9069,
      "boards": 9070,
      "caution": 9071,
      "pole": 9072,
      "owners": 9073,
      "igning": 9074,
      "tellig": 9075,
      "ulsive": 9076,
      "mploy": 9077,
      "spider": 9078,
      "bled": 9079,
      "assuming": 9080,
      "bucket": 9081,
      "apples": 9082,
      "Intellig": 9083,
      "brut": 9084,
      "monsters": 9085,
      "rung": 9086,
      "Regu": 9087,
      "bler": 9088,
      "resour": 9089,
      "Stuff": 9090,
      "Coke": 9091,
      "stayin": 9092,
      "compared": 9093,
      "compromise": 9094,
      "landed": 9095,
      "childhood": 9096,
      "Boat": 9097,
      "chopped": 9098,
      "Artagn": 9099,
      "logic": 9100,
      "Cathy": 9101,
      "flood": 9102,
      "INE": 9103,
      "Mayfield": 9104,
      "Chekov": 9105,
      "passes": 9106,
      "allows": 9107,
      "swamp": 9108,
      "199": 9109,
      "circle": 9110,
      "girlfriends": 9111,
      "raining": 9112,
      "possessed": 9113,
      "colony": 9114,
      "contacts": 9115,
      "grief": 9116,
      "Finish": 9117,
      "flattered": 9118,
      "Whether": 9119,
      "satisfaction": 9120,
      "lifted": 9121,
      "communication": 9122,
      "Woods": 9123,
      "separated": 9124,
      "symptoms": 9125,
      "patterns": 9126,
      "Walker": 9127,
      "Medical": 9128,
      "ignorant": 9129,
      "voted": 9130,
      "Office": 9131,
      "Place": 9132,
      "Stevens": 9133,
      "Friends": 9134,
      "wandering": 9135,
      "Opera": 9136,
      "Kathryn": 9137,
      "confidential": 9138,
      "costume": 9139,
      "Soviet": 9140,
      "episode": 9141,
      "expedition": 9142,
      "WITH": 9143,
      "Ralph": 9144,
      "Keaton": 9145,
      "Artagnan": 9146,
      "Ana": 9147,
      "Apo": 9148,
      "Adrian": 9149,
      "Food": 9150,
      "Fish": 9151,
      "GE": 9152,
      "GU": 9153,
      "KILL": 9154,
      "Lab": 9155,
      "Nar": 9156,
      "Pure": 9157,
      "Sep": 9158,
      "Tam": 9159,
      "Ze": 9160,
      "bald": 9161,
      "ciss": 9162,
      "dd": 9163,
      "dated": 9164,
      "ditch": 9165,
      "jaw": 9166,
      "mug": 9167,
      "sabot": 9168,
      "vag": 9169,
      "zu": 9170,
      "thos": 9171,
      "inn": 9172,
      "intact": 9173,
      "mete": 9174,
      "lene": 9175,
      "enforcement": 9176,
      "bean": 9177,
      "begging": 9178,
      "oter": 9179,
      "idi": 9180,
      "limo": 9181,
      "choo": 9182,
      "root": 9183,
      "Theater": 9184,
      "hopes": 9185,
      "tactic": 9186,
      "tails": 9187,
      "illness": 9188,
      "sop": 9189,
      "tel": 9190,
      "lahoma": 9191,
      "pel": 9192,
      "bold": 9193,
      "therefore": 9194,
      "poster": 9195,
      "explains": 9196,
      "daya": 9197,
      "unde": 9198,
      "prose": 9199,
      "stores": 9200,
      "betting": 9201,
      "Though": 9202,
      "Bela": 9203,
      "Myers": 9204,
      "diag": 9205,
      "groom": 9206,
      "puttin": 9207,
      "branch": 9208,
      "inspe": 9209,
      "sia": 9210,
      "blaming": 9211,
      "Someday": 9212,
      "theirs": 9213,
      "Canad": 9214,
      "stub": 9215,
      "remembering": 9216,
      "stepped": 9217,
      "steward": 9218,
      "Express": 9219,
      "Excellency": 9220,
      "drill": 9221,
      "smashed": 9222,
      "Memor": 9223,
      "aston": 9224,
      "breakdown": 9225,
      "synd": 9226,
      "Around": 9227,
      "iana": 9228,
      "hump": 9229,
      "balloon": 9230,
      "OUR": 9231,
      "answering": 9232,
      "confident": 9233,
      "Georg": 9234,
      "culiar": 9235,
      "humanity": 9236,
      "burger": 9237,
      "lantic": 9238,
      "squir": 9239,
      "operating": 9240,
      "Laz": 9241,
      "THER": 9242,
      "unemploy": 9243,
      "bbon": 9244,
      "smelled": 9245,
      "197": 9246,
      "suggesting": 9247,
      "fellows": 9248,
      "psychological": 9249,
      "fraud": 9250,
      "Westley": 9251,
      "watches": 9252,
      "Tracy": 9253,
      "Academy": 9254,
      "Calvin": 9255,
      "authorized": 9256,
      "belle": 9257,
      "Oklahoma": 9258,
      "Highness": 9259,
      "Terrible": 9260,
      "identified": 9261,
      "Eugene": 9262,
      "booth": 9263,
      "arrangement": 9264,
      "requested": 9265,
      "disappointment": 9266,
      "intentions": 9267,
      "briefcase": 9268,
      "broadcast": 9269,
      "Trevor": 9270,
      "Borg": 9271,
      "Control": 9272,
      "Hawk": 9273,
      "occupied": 9274,
      "electrical": 9275,
      "Council": 9276,
      "samples": 9277,
      "alcohol": 9278,
      "retirement": 9279,
      "Picture": 9280,
      "Cadillac": 9281,
      "Lauren": 9282,
      "mobile": 9283,
      "voyage": 9284,
      "discipl": 9285,
      "architect": 9286,
      "awkward": 9287,
      "hamburger": 9288,
      "Channing": 9289,
      "CONTINUED": 9290,
      "Clyde": 9291,
      "27": 9292,
      "38": 9293,
      "Aud": 9294,
      "BU": 9295,
      "Bit": 9296,
      "Bot": 9297,
      "Bla": 9298,
      "CB": 9299,
      "Cab": 9300,
      "Fant": 9301,
      "Ginger": 9302,
      "Gino": 9303,
      "Hong": 9304,
      "Pad": 9305,
      "Pil": 9306,
      "Papa": 9307,
      "Sick": 9308,
      "Simp": 9309,
      "Sloan": 9310,
      "Vali": 9311,
      "Wh": 9312,
      "WOR": 9313,
      "blo": 9314,
      "biz": 9315,
      "cie": 9316,
      "ffo": 9317,
      "goose": 9318,
      "ilities": 9319,
      "pry": 9320,
      "pea": 9321,
      "slack": 9322,
      "ux": 9323,
      "äng": 9324,
      "inspir": 9325,
      "sting": 9326,
      "artic": 9327,
      "lena": 9328,
      "encing": 9329,
      "...<": 9330,
      "domin": 9331,
      "wires": 9332,
      "advanced": 9333,
      "roast": 9334,
      "hobby": 9335,
      "ams": 9336,
      "lazy": 9337,
      "deput": 9338,
      "contribut": 9339,
      "perfume": 9340,
      "ulty": 9341,
      "offended": 9342,
      "leather": 9343,
      "stored": 9344,
      "previous": 9345,
      "scram": 9346,
      "lph": 9347,
      "wax": 9348,
      "sufficient": 9349,
      "grounds": 9350,
      "kingdom": 9351,
      "kindly": 9352,
      "Chang": 9353,
      "tracking": 9354,
      "Somethin": 9355,
      "Maurice": 9356,
      "izon": 9357,
      "viar": 9358,
      "craz": 9359,
      "compound": 9360,
      "ordan": 9361,
      "rett": 9362,
      "umbo": 9363,
      "breasts": 9364,
      "Near": 9365,
      "nicely": 9366,
      "parlor": 9367,
      "Marvin": 9368,
      "identity": 9369,
      "smash": 9370,
      "schools": 9371,
      "sweater": 9372,
      "eatin": 9373,
      "interpret": 9374,
      "interrupt": 9375,
      "elected": 9376,
      "hhh": 9377,
      "cuz": 9378,
      "painted": 9379,
      "radar": 9380,
      "rising": 9381,
      "empire": 9382,
      "treaty": 9383,
      "battery": 9384,
      "hotels": 9385,
      "strip": 9386,
      "Fourteen": 9387,
      "Addison": 9388,
      "shortly": 9389,
      "burns": 9390,
      "messy": 9391,
      "circus": 9392,
      "expand": 9393,
      "ART": 9394,
      "suggested": 9395,
      "Madison": 9396,
      "suspects": 9397,
      "prayers": 9398,
      "examined": 9399,
      "twäng": 9400,
      "Chrissake": 9401,
      "contracts": 9402,
      "crowded": 9403,
      "Magic": 9404,
      "bonus": 9405,
      "pissing": 9406,
      "Syl": 9407,
      "SHUT": 9408,
      "assistance": 9409,
      "Shhhh": 9410,
      "poisoned": 9411,
      "Swana": 9412,
      "Natalie": 9413,
      "cabinet": 9414,
      "therapist": 9415,
      "helm": 9416,
      "Rocky": 9417,
      "Hillyer": 9418,
      "xxxx": 9419,
      "sacrific": 9420,
      "Hollis": 9421,
      "Powell": 9422,
      "capture": 9423,
      "captured": 9424,
      "Radio": 9425,
      "Cecile": 9426,
      "diplo": 9427,
      "Asian": 9428,
      "Dylan": 9429,
      "Ladies": 9430,
      "homosexual": 9431,
      "detectives": 9432,
      "achieve": 9433,
      "Furtwäng": 9434,
      "Spencer": 9435,
      "Wheeler": 9436,
      "helicopter": 9437,
      "Hawaii": 9438,
      "unexpected": 9439,
      "sophis": 9440,
      "Furtwängler": 9441,
      "28": 9442,
      "></": 9443,
      "?\"": 9444,
      "Bright": 9445,
      "Clif": 9446,
      "Darry": 9447,
      "Fas": 9448,
      "Fla": 9449,
      "Hans": 9450,
      "Jor": 9451,
      "Jordan": 9452,
      "Lang": 9453,
      "Lance": 9454,
      "Museum": 9455,
      "Os": 9456,
      "Oak": 9457,
      "Ooh": 9458,
      "PD": 9459,
      "Por": 9460,
      "Parr": 9461,
      "Public": 9462,
      "Sac": 9463,
      "Twice": 9464,
      "Witch": 9465,
      "cad": 9466,
      "kman": 9467,
      "ology": 9468,
      "rou": 9469,
      "tender": 9470,
      "ua": 9471,
      "wan": 9472,
      "wen": 9473,
      "ern": 9474,
      "ervo": 9475,
      "relie": 9476,
      "iser": 9477,
      "hem": 9478,
      "arse": 9479,
      "aya": 9480,
      "liable": 9481,
      "etti": 9482,
      "wiped": 9483,
      "robe": 9484,
      "hills": 9485,
      "ammo": 9486,
      "mock": 9487,
      "peculiar": 9488,
      "depressing": 9489,
      "mans": 9490,
      "iece": 9491,
      "underest": 9492,
      "needing": 9493,
      "aska": 9494,
      "sedu": 9495,
      "diary": 9496,
      "minimum": 9497,
      "oldest": 9498,
      "Invest": 9499,
      "insight": 9500,
      "headquarters": 9501,
      "Rebec": 9502,
      "sitter": 9503,
      "mmers": 9504,
      "guessing": 9505,
      "shovel": 9506,
[...]
